<blank>
<s>
</s>
,
.
▁the
s
▁in
▁of
en
▁die
▁and
▁der
▁to
▁und
n
▁
▁a
-
▁is
e
▁zu
▁that
▁den
▁for
▁von
▁be
▁ist
▁für
er
▁on
▁an
▁auf
▁mit
▁das
▁with
▁The
▁I
▁are
▁des
t
▁(
▁eine
▁ein
r
▁this
▁im
▁as
▁Sie
▁nicht
▁we
▁it
▁werden
:
▁-
▁by
▁have
▁dem
▁not
▁sich
▁dass
▁Die
▁wir
▁you
'
)
▁es
▁will
▁which
▁auch
▁was
▁from
▁sind
ing
▁at
▁or
m
▁wird
▁has
▁In
▁so
▁über
▁um
▁als
▁all
▁can
▁ich
▁aus
▁oder
es
ung
▁A
d
▁our
▁also
▁European
▁haben
ed
▁bei
▁"
▁hat
▁sie
▁einer
▁wie
?
▁zur
!
▁Union
▁diese
▁Das
▁We
▁einen
▁your
▁vor
▁nach
▁können
▁Ich
▁but
▁–
▁would
▁its
▁durch
▁er
▁more
▁their
▁am
a
’
▁d
▁einem
▁Wir
▁S
in
▁zum
"
▁uns
▁kann
▁This
▁It
▁nur
▁been
▁one
▁Mr
▁Europäische
▁EU
;
▁should
/
▁Der
▁dieser
▁Es
▁Kommission
▁Commission
▁do
▁ihre
▁must
▁very
ly
▁ver
▁de
▁new
▁noch
▁other
▁there
▁Hotel
▁wurde
▁they
▁Herr
▁time
▁only
aß
▁like
▁President
▁aber
▁sein
▁Ein
▁war
▁wenn
▁about
▁ge
y
▁sehr
▁müssen
▁man
▁unter
▁An
▁no
te
o
▁Parlament
▁Bericht
▁who
▁these
▁un
▁up
▁Präsident
▁us
▁diesem
▁Aus
▁mehr
▁if
▁E
▁alle
▁B
▁Be
▁any
k
▁bis
▁out
▁people
▁Europe
▁Parliament
ten
▁were
▁into
▁keine
▁unsere
▁möchte
▁Ab
▁Ihre
▁such
▁K
▁well
i
▁neue
▁what
).
▁report
▁States
▁Diese
▁Member
▁da
st
▁need
▁than
▁countries
▁my
▁hier
▁his
▁vom
▁Vor
▁ab
▁when
▁use
▁work
▁first
▁some
▁Council
▁most
▁sowie
▁make
▁2
ungen
▁H
▁europäische
▁Zeit
▁D
▁he
▁now
▁gibt
z
ch
▁eines
▁Er
de
▁many
▁important
▁hotel
▁between
▁dieses
▁C
▁take
▁zwischen
▁because
▁over
ischen
▁muss
▁Ver
B
▁Mitgliedstaat
▁them
g
end
al
▁seine
re
▁Rat
▁Europa
▁3
▁„
▁information
▁F
S
▁support
▁two
▁Ihnen
▁just
▁had
▁made
▁1
▁Da
▁way
▁years
▁anderen
▁world
▁G
▁viel
▁If
▁those
l
A
h
),
▁Im
...
▁where
▁immer
▁policy
▁Wenn
th
▁wo
▁Auf
den
▁dann
▁Entwicklung
▁“
▁re
▁being
▁system
▁Welt
▁'
▁may
us
▁damit
▁So
▁gegen
lich
▁even
▁Frau
▁good
▁zwei
▁Zu
▁national
▁Menschen
▁right
▁part
▁wurden
▁M
▁order
c
▁area
▁meine
▁ganz
▁As
▁For
▁viele
▁year
an
▁unserer
▁sonder
▁habe
▁...
ge
▁N
▁Mit
▁P
▁place
▁market
▁international
▁here
▁s
▁jedoch
▁through
▁You
“
▁ob
iert
be
▁possible
▁same
um
▁andere
▁after
▁weiter
▁own
▁could
or
▁Jahr
▁Bei
▁see
▁find
▁me
▁heute
▁political
▁want
▁development
▁economic
▁Bürger
ieren
▁There
▁5
▁4
b
▁wieder
▁within
em
▁ihr
▁bereits
▁Änderung
▁both
▁sollte
▁much
▁ohne
▁against
▁mich
”
▁rights
▁used
▁how
▁therefore
▁ihrer
C
▁T
▁high
▁Frage
▁selbst
ers
▁does
▁public
▁country
▁Nach
▁Jahren
▁10
f
▁number
com
▁point
▁still
▁la
▁without
el
2
▁great
▁fact
▁last
D
▁long
▁sollten
▁Land
▁einige
▁under
▁know
▁Re
ische
▁social
▁services
▁finden
▁view
▁best
▁free
to
▁human
▁say
▁different
▁available
▁politische
▁room
▁bietet
▁per
▁believe
F
ation
▁able
▁Ent
zu
sten
▁future
▁liegt
▁dazu
▁e
le
▁machen
▁Unternehmen
▁already
▁weil
ver
ic
▁before
▁course
▁To
▁m
▁service
▁Arbeit
▁That
▁darauf
▁today
▁her
▁k
▁dies
▁seiner
▁think
▁Lage
▁jetzt
▁end
▁get
▁All
▁set
schlag
▁process
▁Teil
▁welche
▁data
▁products
▁too
▁Euro
▁cannot
▁case
▁Um
▁But
▁geht
▁Internet
▁möglich
K
▁schon
▁Maßnahmen
▁L
▁Bereich
▁Grund
▁hin
▁V
▁seit
p
▁Informationen
▁Art
▁real
▁dafür
▁Dies
▁Jahre
▁level
▁question
w
on
▁20
▁Zimmer
▁18
▁Commissioner
▁offers
▁R
▁Eine
able
▁ent
▁allen
▁Rahmen
ern
▁Ziel
Kommissar
u
▁city
▁issue
▁during
▁wichtig
▁day
▁financial
▁small
ist
▁&
▁bin
▁example
▁%
▁eigene
▁proposal
▁Ihr
▁allem
▁said
▁nun
▁Herrn
▁access
▁Stadt
▁help
ar
▁Daten
▁means
▁Regierung
▁[[
▁clear
▁every
▁situation
ität
▁debate
▁since
▁mir
▁große
▁quality
▁würde
▁business
▁gut
▁He
▁15
▁du
▁Mittel
▁Wie
▁wollen
▁De
▁However
T
▁6
E
▁Für
▁offer
▁Our
▁pro
▁far
▁particular
▁rooms
▁each
▁währ
▁including
▁zusammen
▁Committee
▁W
G
▁Politik
▁Und
▁Ge
▁modern
der
politik
▁give
▁unseren
▁China
x
▁On
▁three
hin
▁And
ter
▁common
▁sagen
▁Recht
▁etwas
▁next
▁sicher
3
▁provide
▁doch
▁drei
▁US
▁problem
▁measures
▁large
▁few
▁Länder
▁O
▁z
ß
▁agreement
▁come
ig
▁back
▁energy
▁At
▁insbesondere
▁put
▁citizens
▁areas
▁go
▁private
▁ersten
▁erhalten
bar
▁ensure
▁Fall
]]
sch
▁again
ity
▁La
▁Unterstützung
▁soll
▁taken
▁denn
▁Namen
et
ierung
▁further
▁change
▁Kunden
land
▁position
▁Group
▁Problem
▁letzten
▁stay
▁einfach
▁tun
▁Unter
▁shall
▁Zusammenarbeit
bei
▁necessary
▁lassen
▁company
innen
P
▁special
▁global
▁Sicherheit
▁waren
▁security
heit
▁problems
M
▁/
▁beim
ab
▁geben
▁why
▁law
▁stehen
▁|
▁given
▁kein
▁however
▁while
▁Energie
▁System
▁No
▁besteht
▁group
▁cooperation
▁zurück
▁life
▁Über
▁hope
▁legal
▁2009
dem
▁located
▁vote
▁form
▁7
ll
▁einmal
igen
mit
gar
▁always
▁steht
▁House
▁With
▁Ländern
▁wäre
▁12
▁sehen
H
▁United
W
▁neu
▁fest
▁8
▁wirklich
▁present
▁weitere
▁action
▁better
▁main
▁protection
▁They
ste
▁dabei
▁Richtlinie
▁30
▁Fragen
▁full
▁natürlich
▁result
▁Kollegen
grund
▁Was
erstatt
▁did
▁Finanz
se
▁Umwelt
▁USA
▁needs
▁production
it
▁worden
▁trade
▁solche
▁Community
▁using
▁muß
▁power
▁down
▁open
▁U
▁current
▁around
▁Bedeutung
▁p
▁based
▁become
▁Verfügung
ia
▁working
�
▁centre
▁What
isch
aus
as
▁hand
▁Seite
▁local
▁state
O
▁terms
na
▁Un
▁Möglichkeit
▁c
▁seinen
ion
▁wissen
1
▁großen
▁whether
is
▁water
at
▁Aber
▁particularly
man
▁These
▁direkt
▁respect
▁role
▁Thema
▁together
▁erste
▁another
▁Schutz
▁aller
▁second
▁kommen
▁Kinder
▁gleich
▁Auch
▁Als
4
▁Hier
▁children
▁Beispiel
▁St
V
▁When
▁German
▁Markt
▁rapporteur
erhalb
▁di
▁Ende
▁Weise
▁bieten
▁km
▁davon
▁Zukunft
▁Service
▁könnte
▁stellen
N
▁conditions
▁darüber
▁gegenüber
▁certain
v
ta
▁Rolle
▁experience
▁Probleme
▁entfernt
▁soziale
▁issues
▁Weg
▁daher
▁whole
▁page
▁close
▁control
▁various
▁account
_
▁women
▁positive
▁companies
▁unser
▁Gäste
▁Bar
the
▁sowohl
▁health
▁hatte
▁industry
▁matter
▁budget
▁erreichen
▁basis
▁Frauen
▁befindet
▁Mrs
san
os
▁government
▁sector
▁unterstützen
ungs
▁research
▁really
un
▁Arbeits
▁non
▁Am
▁transport
▁meiner
▁especially
▁besonders
▁gemeinsame
R
▁project
▁Staaten
kommen
▁con
▁systems
▁Man
▁staff
▁done
▁create
il
5
▁ihnen
▁wichtige
▁region
▁look
▁Haus
▁third
▁short
▁location
no
▁dort
▁site
▁Haushalts
▁Fraktion
▁verschiedenen
▁Situation
▁Tag
▁Meinung
▁name
markt
▁programme
▁single
▁l
▁ja
I
▁million
▁Seiten
▁New
ra
▁International
▁gute
▁beide
▁Du
punkt
co
▁less
up
▁zwar
▁major
▁San
▁wirtschaftliche
▁f
▁decision
her
▁i
▁b
ige
ein
▁J
▁start
▁specific
ा
▁Alle
ur
▁general
▁environment
▁itself
▁continue
▁subject
▁alles
▁Rechts
▁something
▁Artikel
▁Germany
L
▁several
▁klar
▁Haupt
▁food
▁50
▁thank
ment
antrag
▁genau
▁old
▁resolution
▁Software
▁price
▁führen
▁EUR
▁glaube
▁car
▁Hilfe
▁range
schließ
▁making
▁ange
▁home
▁least
ve
▁Programm
▁excellent
▁Uhr
▁regard
▁gesamte
▁ask
go
▁internationalen
▁co
me
wohl
▁wish
zeit
▁2008
▁following
▁Leben
▁weit
▁gentlemen
▁individual
▁directive
▁16
▁line
▁crisis
▁2010
sprache
▁going
▁away
▁personal
▁Ort
▁forward
▁management
▁Lösung
▁Z
▁möchten
▁family
di
▁Form
▁Gemeinschaft
▁gemeinsam
▁rules
क
▁notwendig
▁17
▁Le
▁welcome
▁air
raum
▁found
ma
▁Kolleg
▁money
▁approach
▁product
▁9
▁bekannt
▁Wasser
▁hinaus
▁once
▁software
▁Preis
▁öffentliche
▁etc
(
▁little
▁period
▁towards
▁Region
▁Geschäfts
▁online
▁ideal
▁Madam
▁Personen
▁Ihren
▁Zusammenhang
▁until
▁institutions
lichen
▁stellt
▁him
▁increase
▁things
j
▁growth
▁fast
▁World
▁kommt
▁agree
▁call
liche
▁14
▁pre
ro
▁jeder
ca
träge
▁often
▁Gebiet
▁zweite
▁erst
▁aid
ant
▁Treaty
▁Schluss
▁100
ner
▁play
▁off
ka
▁value
▁regional
▁bitte
▁opportunity
▁Wirtschaft
▁customers
▁besser
ä
▁Bank
▁rather
ordnung
®
bstimmung
▁größte
▁25
▁voll
▁activities
▁mind
▁days
▁quite
ness
da
▁schnell
▁list
so
▁Kosten
▁Verbraucher
▁daran
▁unterstützt
▁interest
leicht
▁Rück
▁bzw
▁weniger
trifft
▁bringen
▁State
▁might
▁sea
▁provided
▁design
▁resources
ien
▁Industrie
▁include
▁11
▁Produkte
▁Durch
▁gilt
la
▁gemacht
▁progress
▁town
▁Viel
▁fully
▁framework
▁reason
▁favour
▁gesagt
▁Ebene
▁Unsere
▁Geld
▁behalf
▁nämli
▁yet
▁Hotels
▁indem
▁field
im
▁Mal
▁etwa
▁she
▁having
▁Millionen
▁September
▁gerade
ce
▁economy
▁mehrere
▁technology
▁past
▁solution
▁contact
▁ladies
▁dar
▁bereit
▁Wirtschafts
▁Rates
▁Berlin
▁:
▁Erfahrung
▁among
ie
▁After
▁Sch
|
▁left
▁light
▁ihn
▁Qualität
und
▁content
▁jeden
▁Reform
▁allow
▁nehmen
▁amendments
▁2007
▁above
ber
▁members
▁Punkt
▁safety
ive
▁easy
ate
▁heart
ary
ism
nächst
▁statt
▁minutes
▁show
▁Ansicht
▁enjoy
▁Rechte
▁key
▁Spiel
▁Projekt
▁opinion
▁taking
▁adopted
▁meisten
▁erforderlich
▁Deutschland
र
▁ebenfalls
▁ihm
enden
gen
▁costs
▁proposals
▁Vorschläge
▁13
▁Park
7
The
keit
▁website
▁Kultur
▁dessen
recht
▁Bezug
▁text
▁unterschiedlich
▁Web
▁application
▁addition
▁legislation
▁Europas
▁verbunden
▁Gesellschaft
▁darf
▁called
▁One
▁handelt
▁difficult
▁risk
sichtlich
▁darin
▁building
▁Members
bau
ry
▁verwendet
▁kind
▁Bild
▁policies
▁gehen
▁Minister
do
▁hohe
▁se
für
▁attention
▁Wahl
▁besondere
and
▁due
▁Verhandlung
▁Website
▁concerned
".
▁weltweit
▁beautiful
▁simply
satz
▁responsibility
EN
▁sei
▁Do
▁deutlich
▁Restaurant
▁2000
▁macht
▁dürfen
▁Sozial
▁X
ling
▁results
▁schaffen
▁Co
stand
▁projects
ti
▁Produkt
▁verschiedene
ende
▁bestimmte
▁erreicht
li
▁Se
▁importance
▁complete
é
▁provides
bkommen
▁sub
▁effective
haus
▁society
Y
▁brauchen
▁principle
tern
ton
▁person
▁Steuer
▁bedeutet
▁total
▁ca
▁strategy
▁del
▁points
▁version
▁24
▁19
teil
▁0
▁hoffe
▁environmental
▁hoch
▁Demokratie
▁greater
▁makes
▁natural
▁Menschenrechte
▁TV
▁einigen
▁groups
stellung
▁sollen
े
schaft
ty
▁Anwendung
▁Richtung
▁training
▁National
▁questions
▁land
Z
▁bring
▁Verantwortung
▁Debatte
chen
▁side
schutz
am
▁along
8
▁deal
ler
▁Fortschritt
▁known
▁El
age
▁breakfast
▁standards
eshalb
6
▁Bau
▁Dank
▁achieve
▁words
▁required
▁pay
▁meeting
▁recent
▁central
▁times
zustellen
▁Pro
▁Verbindung
▁others
▁Zugang
▁)
isierung
▁visit
▁authorities
ze
▁Umsetzung
▁Mar
▁clearly
▁fundamental
▁Zahl
▁hervor
▁deshalb
▁step
▁See
uß
▁via
fall
▁cost
▁live
▁bar
▁Von
▁feel
▁essential
▁standard
▁entwickelt
▁four
▁competition
▁Nähe
sa
▁address
▁Initiative
▁je
30
▁November
▁cultural
ak
▁Wettbewerb
X
ik
nehmen
▁technical
▁top
▁et
▁let
▁Version
▁Geschichte
",
plan
▁würden
▁UN
ke
▁user
▁nature
▁internal
▁wichtigste
▁2005
▁reform
▁serious
▁near
▁le
▁Lebens
▁Nicht
▁lange
he
ul
▁Bevölkerung
▁enough
▁anzu
▁Interesse
▁directly
▁longer
▁employment
▁Text
▁months
▁findet
▁nächsten
▁proposed
▁views
▁facilities
▁Windows
▁40
▁responsible
fassung
▁Dienstleistung
▁history
▁My
▁Natur
▁nutzen
▁beach
▁vier
▁young
▁gehört
auf
legen
▁currently
▁besten
▁werde
▁Sicherheits
▁April
gleich
▁allerdings
▁Jahres
▁Klima
▁Verbesserung
ated
▁Paris
▁pages
▁requirements
▁2006
ismus
▁solutions
▁network
▁[
▁u
▁themselves
▁force
weisen
▁parties
los
▁peace
ad
▁Russia
▁Ja
▁request
▁guests
wirkungen
▁involved
▁ausge
per
▁implementation
▁interests
ting
▁event
▁o
▁freedom
▁ago
▁Ziele
▁Ob
▁000
▁sure
ja
▁station
▁needed
▁internationale
▁never
▁improve
▁Handels
▁Bedingungen
▁Israel
▁Entscheidung
▁language
▁beispielsweise
▁events
▁Grundlage
▁fair
▁Hand
▁Verfahren
▁art
▁house
▁extremely
▁century
▁gegeben
▁From
▁einzige
▁democracy
nach
▁Please
▁Tatsache
▁voted
au
▁please
▁Zusammen
▁regions
▁weiß
▁keep
▁Vereinigte
▁upon
id
▁Selbst
▁y
▁efforts
▁Partei
▁unique
▁Tat
usschusses
▁regulation
▁hard
á
▁wide
▁final
▁plan
system
▁team
ster
mo
▁France
▁Reihe
▁arbeiten
ir
▁Partner
▁GmbH
▁night
▁developed
▁führt
▁effect
▁additional
je
▁ermöglicht
spolitik
bereich
▁enthalten
▁restaurant
▁file
ierte
▁kleinen
geordneten
▁Neu
▁capital
▁sprechen
▁understand
▁strong
▁soon
▁music
▁comfortable
▁Einsatz
ei
est
▁Damen
▁Vertrag
▁Wort
▁Wert
▁lot
▁negotiations
▁gestellt
▁though
▁bleiben
▁que
▁consider
▁either
▁Technologie
▁g
▁situated
staat
▁share
▁h
▁frei
▁Kontrolle
tragen
▁größere
▁foreign
lage
▁halten
▁direct
▁changes
mann
▁fünf
]
▁Auto
out
zahl
▁Blick
art
▁rate
▁zeigt
▁verfügt
▁Herren
ischer
▁By
▁everything
▁meet
▁created
tritt
▁developing
▁education
▁add
्
▁ganze
igkeit
▁Möglichkeiten
▁Doch
rseits
▁program
▁true
▁turn
▁Schritt
▁Verordnung
▁success
ek
▁check
▁post
▁idea
▁wenig
▁run
▁Strategie
▁Landes
ine
▁vorgeschlagen
▁nie
vor
▁könnten
▁Presidency
▁climate
▁according
▁accept
ierten
▁later
▁Erklärung
In
▁almost
▁Erfolg
▁care
▁French
▁type
▁schwer
▁prices
▁comes
▁web
▁gleichzeitig
▁receive
&
▁Design
▁dis
U
▁thus
▁cases
▁‘
▁v
▁living
▁Nutzung
▁appropriate
sion
▁actually
führung
▁Erweiterung
▁Platz
▁democratic
▁included
▁wohl
▁lead
▁Japan
ian
▁Institutionen
▁Minuten
gestimmt
▁original
▁states
▁Tages
▁ebenso
▁markets
▁reach
▁outside
▁Druck
▁Zentrum
ating
stellen
▁Sport
▁held
▁Con
▁Seit
▁procedure
▁knowledge
▁Forschung
mittel
▁Ergebnis
▁Musik
▁read
▁stark
▁thing
▁send
▁context
▁West
▁Al
▁Ausdruck
line
zen
▁AG
▁road
▁funds
▁walk
io
▁May
ni
inblick
▁einzu
müh
▁week
▁rest
▁21
▁Ergebnisse
▁Interessen
▁Dr
ci
▁space
▁hatten
▁American
▁nahe
▁Mai
▁workers
wesen
setzung
▁investment
▁impact
▁communication
ि
▁darum
▁Außen
▁amount
▁low
▁designed
▁jede
▁Mitglieder
▁Not
▁majority
▁aktuelle
▁guarantee
▁customer
ekämpfung
sicherheit
▁America
min
▁einzelnen
▁professional
▁How
ger
▁hätte
▁Antwort
9
▁tax
▁famous
▁stand
▁early
ance
▁anti
▁five
▁moment
▁denke
▁Position
▁model
ö
▁Regionen
▁Frei
greifen
▁date
▁Binnen
▁el
▁media
▁throughout
▁Fest
schen
▁features
▁1.
▁Währung
▁konnte
ex
▁rund
▁London
▁Dah
▁angenommen
DE
▁demokratische
▁entsprechend
ußerdem
▁looking
▁Government
▁dank
00
▁seen
▁August
▁across
J
▁Freiheit
▁big
▁certainly
▁auszu
▁genannt
▁2004
▁Sa
▁benefit
▁Herausforderung
▁Court
ina
▁Russland
▁Online
▁ever
▁€
▁jedem
▁ernst
▁kleine
▁hours
▁Personal
▁remain
ga
tra
▁Let
▁doing
▁befinden
▁Programme
▁perfect
▁traditional
▁gab
▁Po
ßt
▁Unser
rat
▁General
▁prevent
▁writing
▁Information
▁setzen
▁heraus
▁book
▁euro
▁links
▁connection
sektor
▁mein
▁pool
mals
▁game
▁inter
▁Beziehungen
▁Turkey
▁Mo
▁took
▁Förderung
▁existing
▁Na
▁practice
haft
स
tal
▁heißt
▁relations
rechte
▁neben
▁Aufgabe
▁basic
▁fight
▁60
▁Liste
ier
▁significant
▁Raum
▁simple
que
▁South
▁concerns
mal
▁member
▁normal
▁material
▁Beitrag
▁Familien
▁face
▁half
▁Kampf
▁users
0
▁try
▁helfen
▁term
▁Gelegenheit
▁mentioned
ft
▁concerning
▁Türkei
▁Bereichen
▁apply
▁völlig
▁Schaff
▁although
▁culture
lo
form
▁tatsächlich
▁Kraft
▁population
▁leading
▁liegen
▁Themen
term
▁develop
▁sense
▁committee
▁Or
▁nothing
▁Nord
verständlich
folge
▁Kunst
▁Verpflichtung
▁deine
▁completely
▁military
▁richtig
▁lack
▁built
10
▁aware
▁offen
▁holiday
▁English
▁related
▁community
▁Iran
▁23
▁promote
▁programmes
▁package
▁relevant
▁friendly
▁Macht
▁Informations
▁Zum
▁objective
▁choice
▁clean
mail
▁reasons
▁bestimmt
▁double
▁kurz
▁internet
▁Dinge
▁demand
▁East
▁fort
erin
▁image
zug
▁move
▁II
▁bleibt
▁Meer
▁Struktur
▁Berg
▁äußerst
▁computer
gehen
nd
▁Since
▁decisions
▁equipment
mm
▁link
▁danke
▁body
▁Of
rüber
platz
▁Mitarbeiter
▁act
▁travel
▁abzu
▁kon
▁Fehler
▁innovative
▁parts
▁1999
▁Konferenz
▁card
▁performance
▁concern
▁Krise
▁200
▁center
▁focus
▁received
▁bekommen
▁weiteren
igung
ü
▁takes
▁Prozess
▁Bitte
▁includes
▁established
spräsident
ial
▁guest
▁jedes
▁objectives
▁jobs
ana
arbeiten
▁aim
▁wegen
▁allows
▁Transport
▁digital
▁entire
▁Prior
▁Lisbon
▁Behörden
▁Staats
▁return
▁schriftlich
▁front
▁answer
▁Funktion
▁2003
▁später
▁Verwendung
▁partners
▁regarding
▁Here
▁Central
▁values
▁Frankreich
halten
▁agreements
▁follow
▁gerne
▁agricultural
son
▁works
ko
▁stop
vi
▁quickly
▁function
gemäß
▁Gewalt
▁Barcelona
▁Post
▁self
▁Gruppe
▁party
▁test
▁below
▁Angebot
weise
see
▁potential
▁Lissabon
▁Sektor
▁beginning
▁Produktion
▁bed
▁Standard
▁sound
▁Management
ell
▁nachhaltig
▁keyword
▁treatment
ous
▁wesentlich
ies
▁nice
▁Film
न
▁Affairs
▁ermöglichen
▁Red
▁Standpunkt
▁Auswahl
▁Reise
▁dialogue
▁stage
ho
▁Les
▁Strand
▁initiative
▁Organisation
▁extra
▁huge
bi
za
▁mean
▁Insel
ären
▁protect
▁Article
▁applications
che
▁enthält
▁Gegen
ise
Mail
▁accommodation
▁job
▁Integration
▁seems
▁achieved
otwendigkeit
▁geführt
▁indeed
▁exchange
▁Some
í
▁2002
▁Meine
▁illegal
▁oil
▁al
▁Computer
▁recently
▁Mitglied
▁Gesamt
▁Gesundheit
▁Anfang
▁Person
▁finanzielle
▁men
▁zeigen
▁spielen
▁pressure
▁complex
▁Video
▁Groß
▁contains
▁choose
▁zahlreiche
▁credit
▁alte
▁floor
▁Arbeitnehmer
▁search
▁gehören
▁stärker
▁gar
ं
▁hinter
usschuss
ol
▁Erst
▁politisch
▁vergangen
▁bestehen
▁22
▁Finally
▁highly
lichkeit
▁Benutzer
▁Investition
▁Tage
▁mobile
▁Golf
▁Ro
▁successful
▁integration
con
▁derzeit
▁June
sitz
▁everyone
▁verbessern
setzen
▁series
▁lässt
▁heutige
▁Flug
▁files
les
▁presented
▁verfüg
▁ten
▁wider
▁active
▁equipped
▁office
50
▁öffentlich
▁Ko
▁increased
legung
▁City
▁leicht
▁Umgebung
▁came
less
..."
berg
▁Amsterdam
verkehr
▁erklärt
▁Vertreter
bewert
▁Woche
kraft
▁jene
ization
▁ausgestattet
▁Gemeinschafts
ut
▁direction
pe
▁billion
▁carried
▁whose
tes
▁amendment
▁joint
▁Verein
▁entsprechende
▁Juni
▁Anzahl
▁PC
▁commitment
▁Jahrhundert
buch
industrie
▁Li
▁Landwirtschaft
▁governments
of
▁agreed
dauer
ful
▁Herzen
▁Dialog
Be
▁verwenden
▁creation
▁historische
bare
▁2001
▁higher
▁Can
▁behind
▁Team
▁Beschäftigung
we
▁Now
▁gewisse
one
bo
20
haltung
▁Pa
▁video
ted
▁häufig
▁consumers
▁cross
▁Gebäude
▁unseres
▁asked
▁Zweit
▁Her
ha
▁geschlossen
▁gebracht
▁commercial
▁Privat
stimmen
▁nuclear
ino
▁perhaps
▁industrial
▁fördern
tu
▁Ski
▁civil
▁Ukraine
▁Business
▁aktiv
▁Bo
▁compromise
▁Me
▁enable
▁Einführung
▁rates
▁external
▁bus
▁Arbeitsplätze
▁don
▁balance
▁press
▁goods
▁table
mäßig
ring
denken
▁80
▁wahr
▁reviews
ischerei
Mehrheit
▁principles
▁Therefore
▁download
▁sagte
▁Villa
sh
po
▁Go
▁Währ
▁added
bank
▁Preise
▁speak
▁York
▁sorgen
▁Bad
▁levels
▁schwierig
▁Debian
▁considered
▁size
sche
▁eigentlich
wirtschaft
▁27
▁aspects
▁response
▁style
▁reduce
▁First
▁latest
▁head
▁setting
▁possibility
▁alternative
▁speed
▁opportunities
▁Lösungen
▁Convention
▁age
▁Car
▁summer
▁Neben
mp
▁Familie
▁Server
▁popular
▁entwickeln
▁shown
ri
▁multi
▁atmosphere
▁legislative
▁bestehende
ac
▁War
▁previous
▁Sitzung
time
त
▁sofort
▁CD
▁shows
▁Besuch
▁Flughafen
▁Luft
▁Handel
▁mal
▁bisher
▁*
iger
▁reached
▁providing
▁500
000
programm
▁North
ck
▁Buch
▁easily
▁lediglich
▁verstehen
▁Den
net
IT
▁Vertrags
▁persönlich
▁Spain
iz
▁effects
▁High
▁Sommer
elwor
▁nichts
▁Lebensmittel
for
▁Konflikt
▁prepared
▁Ho
▁matters
geht
ी
▁Wachstum
▁Party
▁Ma
des
▁allein
▁sustainable
▁erfolgreich
Re
▁enlargement
▁neuer
▁March
hilfe
▁cause
▁Ausgabe
▁leave
ker
▁verfügbar
▁combat
▁erneut
▁umfassende
▁charge
▁rule
▁st
sichts
▁reports
▁guten
▁thanks
▁zusätzliche
ure
▁capacity
▁decided
▁Italy
ap
ium
▁similar
▁construction
▁eingesetzt
▁gewährleisten
ach
▁materials
▁Behandlung
erweise
▁coming
▁à
▁Diskussion
▁increasing
▁tool
▁Sprache
▁draw
wie
▁Era
▁Sicht
▁British
tro
▁Präsidentschaft
▁submitted
▁supply
hand
▁Africa
▁consumer
▁Kontakt
▁hohen
▁allgemeine
▁Vereinbarung
▁train
▁IT
▁Site
▁Kern
vo
▁distance
▁bessere
bel
▁document
ländern
▁Frühstück
▁movement
▁remains
▁six
▁December
▁Folgen
pro
▁property
ह
▁Medien
▁anderer
▁leben
si
▁tragen
▁priority
▁negative
▁details
ard
▁island
▁erwähnt
▁closed
▁Booking
▁Italian
ó
▁scheint
▁Also
▁dritte
fragen
▁Kosovo
▁www
▁funding
▁com
▁limited
▁Museum
va
▁Italien
▁Regierungs
▁recht
▁partner
sicht
▁quiet
▁vorgesehen
▁assistance
die
elle
▁Gruppen
▁Urlaub
▁WTO
▁Inter
▁Western
▁purpose
▁safe
▁Zentral
▁versucht
▁Einzel
▁vorgelegt
▁Aktivitäten
▁Basis
▁Bildung
▁Star
ator
ized
Fraktion
über
▁flexible
▁Haushalt
TM
▁former
druck
▁Gefahr
▁Dezember
ities
▁brought
▁Test
▁versuchen
▁Stelle
▁Juli
▁Tätigkeit
▁Je
star
chtens
▁Nur
▁independent
stein
▁base
ER
▁bevor
▁Punkte
▁Wein
▁discussion
▁code
ical
▁lang
▁supported
▁Free
▁message
ba
▁actions
▁Ru
gesetzt
▁airport
▁apartment
▁dadurch
by
unternehmen
▁film
▁creating
▁Republic
▁festgelegt
länder
▁sites
ehrte
▁konkrete
▁Gleich
▁durchgeführt
▁Bestimmungen
▁Projekte
▁betroffen
▁effort
▁300
är
''
▁pass
fangen
▁außerdem
ang
▁pleased
▁variety
▁Ri
▁Lo
▁January
▁gives
▁Club
▁conference
▁insgesamt
pa
▁amerikanische
▁1998
schließlich
▁Fund
▁school
ES
▁abge
▁vollständig
▁Stunden
▁became
▁avoid
▁largest
▁nationale
ow
▁relation
▁instead
▁source
▁produce
weg
▁produced
▁rich
▁su
▁oft
▁Aufmerksamkeit
▁aufgenommen
▁regulations
▁Portugal
led
▁tell
▁stability
▁+
▁concept
▁express
▁task
▁kulturelle
gang
▁October
▁wine
▁Volks
ale
iv
▁build
sächlich
▁ground
▁study
▁Such
mar
▁item
▁late
einander
▁w
streng
tion
▁review
▁Opfer
▁groß
▁ändern
▁village
▁draft
ix
▁restaurants
▁März
▁interesting
▁damage
▁Zur
▁Werte
▁forms
▁word
▁operation
▁persönliche
▁einschließlich
▁contribution
gesellschaft
▁na
▁allowed
ize
▁hotels
▁started
▁activity
▁Küche
▁folgt
▁eigen
▁genießen
▁enter
▁Today
▁fishing
sp
▁jeweilige
▁status
▁expect
▁Development
▁medium
▁Entwicklungs
▁Entscheidungen
▁Öffentlichkeit
▁Agrar
▁Oktober
FR
▁para
▁vertreten
▁places
feld
zimmer
handel
▁morgen
▁Inhalt
▁Anforderungen
▁park
▁Rights
▁Beginn
▁Folge
▁Fach
▁conflict
▁bit
▁click
▁distribution
▁Höhe
▁gleiche
res
▁Bereiche
▁Republik
▁option
▁Paket
▁statement
▁Vorschriften
ud
▁chance
▁labour
▁Sinne
▁Plan
▁nor
▁van
▁leisten
▁plant
▁helpful
▁Ex
▁Frieden
▁Gesundheits
▁Grenzen
+
▁learn
▁equal
▁offering
▁erwarten
▁steps
▁Anfrage
▁reading
▁Bilder
▁written
▁require
▁procedures
▁Transparenz
▁Spanish
▁Tier
▁provisions
▁Augen
▁structure
▁Staat
ub
▁giving
▁agenda
▁leider
IP
ken
▁Gipfel
estens
▁historical
▁wenige
▁ourselves
▁meines
▁warm
▁Unternehmens
▁Spieler
▁criteria
▁regards
▁geworden
▁violence
▁Last
▁During
▁Finanzierung
▁t
▁maintain
▁Jo
▁transfer
▁separate
▁wichtiger
rkennung
selben
▁halte
▁Nationen
▁contract
▁behandelt
nahme
hr
▁erzielt
▁method
▁drive
▁alt
▁instruments
service
▁finally
▁konnten
▁CO
▁Open
▁aufzu
▁gas
▁lower
▁Aspekte
▁Start
▁round
ors
leben
▁Rede
hof
▁sechs
▁Centre
▁Verkehrs
▁los
▁useful
ence
▁got
▁treffen
▁ski
tin
▁Wochen
▁Di
▁efficient
▁July
▁genommen
▁Januar
▁erfolgt
▁verantwortlich
▁She
▁Sache
▁benötigen
▁Instrument
▁Linux
▁section
zusetzen
▁Unterschied
▁Services
▁note
▁immediately
▁$
▁Many
gabe
▁Firma
▁Stabilität
baren
▁begin
▁Spanien
▁vorhanden
▁documents
wand
ron
▁Innovation
▁fine
isation
mindest
▁highest
▁britische
▁Gründen
▁Chinese
▁benefits
▁Prozent
▁Although
ो
▁nächste
▁death
genommen
▁End
▁Dritt
sfähigkeit
spiel
ari
▁challenge
▁export
▁Spa
­
▁transparency
▁rise
▁Nacht
An
▁Forschungs
▁email
▁Halt
▁Aufenthalt
barkeit
▁''
▁Ra
▁employees
▁erwartet
▁bezüglich
▁gefunden
▁geschaffen
bedingungen
11
▁elements
▁integrated
▁payment
▁Cor
ide
zi
▁mention
▁University
falt
▁parking
▁ex
▁Licht
▁Protokoll
▁reality
▁1997
▁moderne
म
▁numerous
▁implement
▁Mehr
▁influence
▁congratulate
▁elegant
sverfahren
▁90
▁Wohn
▁applied
▁langfristig
▁letzte
▁hinzu
▁zehn
▁talk
▁board
▁consequences
du
▁bathroom
geordnete
▁begrüße
▁Pi
▁Su
▁Gi
▁mountain
▁70
▁Furthermore
itäten
PL
▁weder
▁Dami
▁types
▁doubt
▁Des
▁Jede
▁challenges
▁Directive
▁inform
▁lä
svor
Kompromiss
▁Regeln
▁beyond
▁gelegen
▁Heute
lin
▁poverty
▁saying
▁cut
▁elections
▁led
▁daily
if
▁vital
hu
▁Datei
▁Ka
▁official
▁übrigen
▁processes
▁Your
▁analysis
▁thought
ou
▁allgemein
ada
▁crucial
▁solidarity
▁waste
▁instrument
▁Nr
▁sent
▁sieht
ish
▁diejenigen
▁Solidarität
▁bringt
tel
▁Linie
▁friends
EL
sehen
▁Wunsch
▁En
▁Ressourcen
▁automatisch
▁reference
▁Vi
▁vergessen
▁paid
▁beste
sätze
▁gelten
▁comprehensive
ven
tre
▁Wieder
▁Armu
mon
▁terrace
halt
Ver
▁Q
▁ziehen
▁Verfassung
▁Sea
▁photo
▁transparent
▁Bus
▁!
▁tools
▁carry
▁getan
▁Center
ov
▁secure
▁offered
▁ausschließlich
▁verhindern
fer
hi
Office
ative
▁practical
▁apartments
%
▁goes
▁Fällen
▁Straßen
▁Human
Die
▁Natürlich
▁Verwaltung
▁happy
gelegenheiten
▁Mediterranean
▁kam
based
▁Aufgaben
▁colleagues
▁Even
▁x
▁class
▁Russian
▁eindeutig
ert
▁morning
▁Systems
ally
orschriften
▁Tor
▁sort
▁machine
▁Monaten
▁Aussch
schlossen
▁Krieg
▁Hin
ado
▁Modell
▁Fuß
▁sp
▁voran
▁Te
▁minimum
▁historic
▁Besucher
red
▁met
▁sign
▁»
▁ways
▁Völker
▁erfahren
▁reduction
▁tomorrow
▁richtige
▁Hoch
▁evening
▁Grand
▁server
losigkeit
▁Air
▁Risiko
werk
▁requires
▁paar
▁hätten
▁modified
▁Amendment
▁Public
▁Austria
▁implemented
▁Stand
eher
▁green
▁poor
▁sch
▁Room
fonds
▁adopt
ot
▁love
▁dringend
▁unbe
▁persons
▁growing
▁gewesen
▁anderem
▁organisations
▁shopping
ding
▁relating
▁Microsoft
del
▁ideas
IS
▁Green
▁Y
▁Garten
ah
▁nimmt
gi
bschließend
▁Atmosphäre
▁starting
▁verpflichtet
▁kennen
▁child
▁caused
▁published
▁Menge
▁monitoring
▁forces
▁ha
org
▁les
▁street
zeugung
▁sales
▁geeignet
▁berücksichtigt
▁starke
▁administrative
▁Körper
▁While
▁begrüßen
gelegenheit
▁join
▁target
oder
systeme
▁operating
isiert
▁efficiency
weit
▁border
sam
▁ready
▁Erz
▁establish
frage
ability
▁Viele
ny
▁Conference
▁erlaubt
▁Öl
▁überhaupt
▁erfüllen
▁clients
▁ständig
▁maximum
▁Schritte
fe
▁selection
treten
▁weeks
sk
▁accordance
▁par
▁führende
▁usw
▁unabhängig
▁klare
▁anything
▁decide
▁Praxis
ite
stoff
ations
▁garden
▁fordern
fa
▁sometimes
▁extent
schau
य
▁Airport
▁grundlegende
▁port
▁Vergangenheit
▁Installation
▁Restaurants
▁stet
▁technologies
▁Durchführung
ziehen
▁Volk
▁schützen
▁probably
▁Fischer
▁encourage
▁Wohl
nde
▁Download
zulegen
12
▁terrorism
wissenschaftlich
durch
▁More
▁Best
▁Klein
▁advantage
▁Foto
▁worldwide
▁stress
fahrt
reichen
▁Fähigkeit
ben
▁Winter
▁Annahme
▁sports
▁correct
▁Lassen
▁technische
▁Denn
▁comfort
▁Vertrauen
preise
▁lives
cal
schließen
▁́
▁swimming
tischen
▁benutzt
▁Wi
▁options
▁milit
▁farmers
40
▁setzt
schlagen
▁Präsidenten
▁Tagen
▁zahlreichen
▁Einrichtung
▁genutzt
▁release
verfahren
▁voting
▁debt
ging
▁sämtliche
burg
▁benötigt
▁vorliegende
▁Thank
▁Vergleich
ere
▁gesetzt
▁stimmen
▁getroffen
▁wünschen
US
▁Google
▁interested
▁players
▁darstellt
haben
▁Ne
technik
▁Lu
▁Meter
▁broad
▁gegenwärtig
▁administration
▁tourist
▁scientific
EC
▁Dienst
▁trotz
▁Pre
▁despite
▁lines
▁menschliche
kan
ju
▁wählen
seite
▁außerhalb
▁fun
▁Reich
▁Gott
▁Einige
ag
▁Partnerschaft
▁wanted
▁Firmen
▁1996
▁französische
▁genug
▁methods
▁Männer
▁hold
way
▁bald
▁accepted
▁His
wanderung
▁Security
▁suchen
▁businesses
bild
▁Mitteilung
▁spirit
▁Afrika
▁leaders
▁Afghanistan
▁ban
ib
richtung
▁eingerichtet
▁Rechtsv
wert
▁Organ
▁geändert
▁languages
▁lost
▁fresh
▁früher
▁lokale
▁innovation
bit
▁Sitz
▁trying
▁raised
▁Bedürfnisse
zeichen
▁walking
▁Dann
▁UK
geben
▁Schwierigkeiten
achtet
▁sun
▁Ireland
▁ausdrücklich
lt
port
▁Dazu
▁Gold
▁Zeichen
▁Abend
om
ki
▁Moreover
▁menu
▁kurze
jo
▁visitors
letzt
ley
▁Swiss
▁mo
▁absolutely
▁kürz
▁28
ip
▁Anti
▁Wer
▁Nun
▁strategic
▁lies
▁Allerding
fi
▁hot
▁limit
vis
▁erinnern
▁Moment
▁Schlüssel
▁Bio
▁Mac
▁«
bringen
▁spend
▁annual
op
▁path
▁Verteidigung
▁26
▁bad
ised
▁relationship
▁Mi
▁games
▁Dienste
minister
▁deutschen
▁overall
▁Tour
▁exist
▁Real
è
▁verstärkt
▁trans
▁namely
▁Secondly
▁Just
day
▁Milliarden
▁folgenden
▁Port
▁technischen
▁überzeugt
▁entscheiden
▁Mobil
▁sectors
▁unten
▁banks
rufen
ort
▁Roma
▁Weiter
dy
▁DVD
▁Ad
▁4.
isten
▁35
▁borders
▁month
▁changed
▁wrong
25
▁Pe
▁Zweck
Hotel
bald
▁Klick
▁entgegen
▁übernehmen
▁Osten
▁eben
▁tätig
▁regime
preis
hotel
▁images
▁Inhalte
▁cover
▁Stil
▁Bewertung
La
▁fall
▁fish
glück
▁goal
▁player
▁accession
▁Link
▁People
▁Einfluss
▁Per
▁demands
▁ehemalige
▁trust
19
▁endlich
▁yourself
gesprochen
▁gesehen
▁opening
▁Österreich
▁=
▁traffic
▁intended
cher
▁Wo
▁Terrorism
▁Fi
▁phone
weder
▁representatives
▁Hu
▁character
▁Zustimmung
▁Only
heim
▁heard
▁teil
▁expressed
gel
▁Waren
qui
val
ru
▁Val
▁worked
▁2.
▁Werk
shalb
▁record
▁Agreement
gehend
car
▁committed
▁proper
▁powers
▁Wettbewerbs
▁angeboten
wasser
▁processing
▁kaum
▁gezeigt
ल
▁cities
▁NATO
▁folgende
▁structural
▁Band
PT
▁Leute
▁spa
▁beteiligt
hilfen
▁season
▁ability
▁jährlich
▁verbessert
▁zusätzlich
▁Falle
▁Economic
▁wirtschaftlich
▁alone
▁increasingly
▁Künstler
▁Asia
▁unbedingt
▁brand
▁currency
▁welches
▁talking
▁zudem
▁bewusst
▁staatliche
▁initiatives
▁Regel
▁erstellt
▁Vorteile
▁Hause
▁Wann
vent
▁Irak
▁conclusion
leistet
▁running
park
▁vi
▁purchase
▁Gas
management
use
ible
▁Fisch
▁bank
▁feature
▁Süd
▁—
▁God
▁Kapital
▁Costa
▁discuss
▁Produktions
▁families
▁mass
▁breite
▁täglich
wenden
▁mainly
▁aufge
▁fields
▁Straf
▁Ist
▁planning
▁save
▁Konzept
▁wonderful
▁cohesion
all
▁Board
▁Netzwerk
▁placed
mi
24
rlei
▁command
▁einheitliche
▁Ca
▁Aufnahme
ör
):
▁außer
▁collection
ick
▁began
▁improved
▁gefordert
▁beginnen
▁bitten
wandel
▁approved
▁infrastructure
▁Idee
▁justice
tic
▁Telefon
prinzip
▁students
▁Holz
▁sur
▁calls
▁Ferien
▁Ausbildung
dienst
▁electronic
ski
▁John
▁wahrscheinlich
▁circumstances
▁contribute
▁strengthen
▁falls
▁te
▁entscheidend
amp
kategorien
▁fellow
▁akzeptiere
▁gerecht
▁Indeed
▁affected
lose
▁plans
▁Rechnung
▁Nations
▁moral
▁unemployment
▁permanent
▁powerful
▁emissions
▁folgen
▁Super
kosten
▁police
▁Abschluss
▁Sonder
▁suitable
“,
pi
▁erkennen
Ge
व
▁entspricht
▁Boden
▁1990
stimme
▁beschlossen
▁Hersteller
▁sozial
▁critical
▁traditionelle
uch
▁italienische
प
called
▁reduced
ini
märkte
▁Iraq
▁automatically
▁extensive
▁Einstellung
▁priorities
▁confidence
▁sitting
av
tor
tz
▁Waffen
▁refer
▁Ba
▁eng
ku
▁spezifische
▁reforms
▁bilden
blick
ile
▁whom
▁Falls
▁white
▁liebe
ringer
▁manner
▁Überwachung
▁client
▁entschieden
▁Fahr
▁scope
maßnahmen
▁remind
▁comments
▁braucht
▁Ober
▁delivery
▁veröffentlicht
70
▁crime
▁comment
▁Station
tri
▁Organisationen
▁Bi
▁participation
▁India
▁ensuring
welt
q
eln
▁Texte
ement
▁else
▁plus
▁höhere
▁Karte
▁Enterprise
▁shower
ong
kommens
▁Stellungnahme
▁Zweifel
ice
▁reception
▁berücksichtigen
▁unge
▁tour
let
lang
mehr
stadt
▁kitchen
ica
daten
▁Schul
our
tum
üb
▁zentrale
wirken
▁länger
▁Social
▁Front
▁kostenlos
▁appear
arbeit
▁recommend
äre
ble
▁south
▁wesentliche
▁ad
ich
▁specifically
15
▁angegeben
▁1,
▁serve
▁erfüllt
▁played
▁remember
▁Kriterien
ran
▁pa
▁victims
▁"...
führen
▁establishment
▁threat
lassen
▁Zwischen
@
konferenz
▁Suche
▁Frankfurt
▁Anspruch
▁competitive
fälle
▁Agenda
ries
tar
▁black
▁sagt
▁star
gearbeitet
▁Sal
▁Middle
▁hoffen
öl
ya
▁Greece
▁red
▁Gu
▁introduced
▁una
▁tabled
▁Ane
gestellt
://
▁agriculture
RO
▁Czech
▁institutional
▁bilateral
▁Wahlen
▁sport
ato
▁motion
▁camera
▁effectively
künftig
▁partnership
▁represent
▁installation
▁hinweisen
▁getting
▁select
are
▁ausgezeichnete
▁Übersetzung
St
▁inside
▁telephone
▁served
partei
anlagen
▁detailed
▁Hintergrund
▁Each
▁umgesetzt
▁Voll
▁larger
▁usually
gelegt
60
▁prior
▁jegliche
▁absolut
▁aimed
▁likely
▁referred
▁failure
▁summit
▁komplett
De
ue
ano
off
▁screen
▁150
▁attack
ständigkeit
▁angezeigt
▁Mio
▁Chance
▁Policy
gegen
▁Antrag
▁positiv
▁Homepage
▁gegründet
ions
insicht
▁exactly
▁regular
▁becoming
▁Engagement
▁pleasant
▁euch
pre
▁precisely
▁ging
gt
press
hl
▁Menschenrecht
▁rural
▁Nutzer
▁Instrumente
▁Code
▁geschützt
▁Bis
▁instance
heben
▁winter
▁Dem
▁Sollte
▁Most
▁hear
▁Stein
80
▁2020
▁angesprochen
▁31
▁benutzen
rd
▁purposes
▁assessment
▁animals
qualität
▁speziell
▁anerkannt
prüfen
:00
▁manage
▁protected
▁1995
▁buy
▁otherwise
ship
ärisch
▁measure
▁Casino
▁Terrasse
▁Griechenland
board
hen
▁paper
bericht
▁Zeitraum
▁Nutzen
▁Banken
▁deep
▁worth
▁sources
▁kommende
▁Fa
▁suggest
lu
▁budgetary
▁stated
▁Amerika
▁discussed
▁praktisch
noch
▁einge
kon
▁j
schlüsse
▁dealing
▁peaceful
fen
▁laws
▁Aspekt
▁Sprachen
▁Komfort
ella
▁Tri
tan
log
▁seines
▁Versuch
▁hervorragende
▁Pu
▁managed
▁origin
▁expected
▁Angriff
stelle
Q
▁Mitte
▁Schengen
▁Infrastruktur
▁nötig
▁introduction
▁Stimme
▁spacious
▁February
ante
▁map
▁represents
▁booking
▁Great
politische
▁thousands
▁introduce
ob
▁medical
entwicklung
categories
▁funktioniert
▁Charakter
▁Kenntnis
▁Wege
TV
low
▁voice
▁Monate
gebiet
▁Festival
ifizierung
▁earlier
▁functions
▁format
▁Herstellung
▁happen
▁metres
▁Titel
▁Worte
ED
▁entry
▁actual
▁oben
▁fahren
▁Teile
▁risks
▁lösen
▁followed
▁Gesetz
▁covered
▁Anpassung
▁bath
▁track
wa
▁guidelines
möglicherweise
▁herzlich
▁bezeichnet
▁respond
▁mm
▁Regelung
▁Name
▁surface
▁fallen
▁Dokument
▁freuen
systems
▁Straße
▁selected
union
▁Büro
jährige
zugehen
▁color
▁combination
▁provision
ware
▁Stärk
▁closely
sprozess
▁Vorbereitung
▁vermeiden
à
▁discussions
tag
▁fund
▁criminal
enü
▁Betrieb
▁Pflicht
▁exclusive
▁Office
▁Hafen
ala
ay
▁4-
▁loss
nis
▁firm
▁Leistung
▁Why
side
▁news
▁Research
▁Mittelmeer
fuhr
▁gewählt
lauf
▁Forderung
▁understanding
▁listed
▁degree
▁Wirkung
16
▁Home
ellen
kehr
▁Click
▁jederzeit
▁29
▁Anteil
▁stock
▁wind
▁speech
▁Großbritannien
▁improving
zentrum
▁teilweise
▁enterprises
▁Roman
▁Dollar
▁immigration
▁fear
folgend
▁spezielle
▁Messe
▁cuisine
schein
▁Kauf
▁super
▁Aufbau
▁rein
▁si
▁absolute
▁seem
▁beziehen
rahmen
▁detail
▁considerable
▁3.
▁programs
▁finanz
mb
▁Street
▁linked
▁32
▁darunter
od
sized
▁signal
▁animal
▁jeweil
▁neues
▁Forum
▁verfolgt
ey
▁title
▁opened
▁mag
eingeschränkt
▁tourism
▁Are
ff
▁sufficient
▁Ruhe
▁Bush
▁Hoffnung
▁went
▁Switzerland
▁erziel
falls
▁button
nischen
▁average
▁desire
▁trip
▁offensichtlich
era
▁junge
▁gave
▁Begriff
teilt
▁Funktionen
wahl
hnen
sis
▁presence
▁supporting
hafte
▁Garantie
▁Santa
▁Gesetzgebung
zone
▁spanische
▁Prüfung
Sch
▁says
▁höher
ising
▁ausreichend
▁Rooms
▁erhöhen
▁dienen
▁Ha
gre
▁exercise
▁gern
werte
▁operations
▁Status
▁lesen
Ma
▁relax
▁Tradition
unter
▁Hamburg
spekt
▁Andere
sprechen
▁Geist
▁properly
▁gelangen
Г
▁Gebiete
▁garantiert
▁race
▁Zivil
▁freien
▁Dateien
▁marketing
▁Februar
▁resort
▁wollte
▁Apartments
▁Aktions
▁domestic
▁Ku
bus
–
▁income
▁Ost
ktionen
▁campaign
▁playing
ez
ction
▁Einrichtungen
▁entirely
making
▁tradition
▁networks
stehen
▁derartige
č
ktion
▁Material
▁fisheries
region
▁betrachtet
▁näher
▁betreffend
▁eingeführt
▁authority
▁Saint
▁Trade
▁ISO
▁Mann
▁import
▁duty
free
▁components
”.
pass
▁foot
▁coordination
▁Qualitäts
▁won
▁relate
▁berühmte
▁competitiveness
▁Polen
90
▁besuchen
▁übernachten
▁Sinn
▁chinesische
▁beds
▁founded
▁Bundes
istischen
▁fire
ral
▁Ausführ
▁Ausnahme
fahren
▁Madrid
▁generally
▁Koh
▁Kindern
▁typical
▁gekommen
rhöhung
▁globale
▁presidency
▁bestätigt
SA
▁Sol
We
▁http
▁experts
▁Europäer
▁buildings
▁Rad
▁picture
▁valid
▁Entwurf
▁Kritik
▁difficulties
ING
▁Dritten
▁organisation
sweise
▁Übe
▁Stellen
lar
▁che
▁Brussels
»
ons
lange
text
laufen
▁Martin
▁Poland
▁Wissen
chi
▁Schweiz
▁betonen
▁voraus
▁facing
▁höchste
▁Paul
▁Presse
ug
▁fand
▁coast
▁glaub
▁Grenz
▁Universität
▁(19
▁propose
▁optimal
▁consideration
ette
▁pe
▁sa
▁spielt
▁estate
tisch
▁Veränderungen
▁).
▁square
▁handeln
▁Because
▁aufmerksam
▁darstellen
▁district
▁break
▁Analyse
01
▁Media
▁author
▁Webseite
▁attempt
▁Unfortunately
▁45
▁Multi
▁Netz
▁informieren
ola
▁display
▁lernen
hnung
▁Wachstums
▁Health
▁hour
bauen
▁Irland
▁items
▁Wohnung
ros
lagen
uk
▁Beschreibung
▁opposition
▁architecture
▁Option
▁Leider
▁radio
▁Top
▁dynamic
▁paragraph
▁dagegen
▁attractive
▁genuine
▁Kommunikation
▁umfasst
09
▁science
▁Meeres
dlich
ping
▁coffee
▁thinking
schluß
▁400
▁Fort
griffen
reinkommen
eben
▁Leistungen
▁aspect
▁gewährleiste
not
▁votes
bahn
▁Jetzt
▁Königreich
▁Pakistan
▁applies
▁erfolgen
nommen
▁defence
dienste
▁Produkten
▁Mindest
▁PHP
▁Lizenz
▁vehicles
▁speaking
▁forget
▁Seine
▁interessante
▁Regulation
gegeben
▁Zwei
RE
▁plants
▁regelmäßig
grenzen
▁advanced
▁fixed
year
▁Lake
▁entstehen
▁Militär
getragen
▁Van
▁stärken
▁Nah
▁Absatz
▁IP
▁Fonds
▁Arab
▁Botschaft
▁erklären
▁shops
king
ique
▁wären
▁Kredit
▁stable
▁Übergang
▁north
▁arrival
▁Indien
▁verloren
▁phase
▁EADS
▁politics
▁middle
▁erleben
▁Power
▁fragen
▁Peter
▁Motor
▁hands
▁initial
▁flexibility
ji
wirklich
▁umfangreiche
š
back
▁einfache
▁riesige
par
▁evidence
▁Gar
▁Prime
▁database
▁miss
▁Friedens
▁Angaben
▁Kingdom
▁Sta
▁einzelne
▁Grundsätze
▁Welche
▁Via
▁told
▁Arten
▁machines
▁freue
▁Belarus
▁Dimension
▁translation
cia
▁Beweis
Ã
▁Association
▁himself
▁Za
▁2011
zwischen
ria
▁bodies
▁expression
▁Gefühl
uff
führer
▁Asyl
▁According
▁enormous
▁Systeme
▁7.
vin
▁erhöht
ual
rad
rate
▁Technik
war
▁Standards
▁5.
▁relativ
▁Pan
▁myself
▁Sonnen
▁financing
▁arbeitet
▁Warum
▁easier
▁supports
▁strategische
▁difference
*
▁Once
▁Trans
▁Liberal
▁unternehmen
▁defined
▁bi
cur
▁Brüssel
zy
▁Breakfast
▁dangerous
▁Rum
räume
▁trägt
▁zufrieden
▁television
▁monetary
Fi
▁abgeschlossen
▁hält
old
▁zunehmend
how
mat
▁participate
▁wants
▁spät
▁developments
Ein
▁Angesicht
trägen
hung
▁promoting
▁manche
▁signed
▁Untersuchung
schehen
▁konzentrieren
▁ancient
▁erscheint
▁Beratung
21
▁Tisch
isieren
zugeben
iß
▁Beteiligung
▁parliamentary
jenigen
▁anyone
▁adoption
▁Mess
▁verfolgen
ON
▁informed
System
▁seriously
bb
app
")
▁min
▁anders
▁element
▁England
▁ve
▁Kirche
folger
▁experienced
work
▁mis
▁outcome
ces
▁THE
°
▁Wissenschaft
gehalten
▁Over
uck
▁Sorge
rechts
SE
▁vision
▁verursach
▁concrete
fordern
▁obtain
▁Berichte
▁übertragen
▁meetings
▁uner
▁Greek
European
maß
▁Achtung
handels
▁practices
ssystem
▁associated
▁win
▁article
▁studies
▁Deutsche
arbeitung
▁Buchung
▁door
▁Kurz
gra
dorf
▁connected
▁gegenseitig
▁klicken
▁humanitarian
AR
▁erstellen
▁promotion
▁Ni
▁Hauses
cu
▁exhibition
wechsel
fähig
▁leader
▁Speicher
ped
henswürdigkeiten
rum
▁Forderungen
▁por
cha
ender
▁spring
▁rent
▁Guest
▁aims
IC
▁Gemeinde
▁Private
chließlich
▁Katastrophe
▁Digital
▁rechts
▁IN
house
▁zuständig
AT
▁spent
▁implementing
▁happened
wohner
▁verlassen
▁perform
▁wenigen
▁Dorf
▁contain
izing
▁immediate
▁impossible
▁volle
arten
qu
▁ursprünglich
▁Prinzip
▁Bereits
▁notice
▁Strom
▁condition
▁seek
lock
▁Realität
▁Live
▁fordert
lic
zieren
▁Will
▁African
▁Every
nisse
Pro
▁Arbeiten
▁carefully
sichtig
▁guide
▁reducing
▁laut
▁diskutieren
▁Verkehr
▁Market
sorgt
▁behaupte
▁Support
▁nennen
cy
▁Landwirt
▁Drog
tische
▁anderes
treffen
▁Pass
▁route
▁echte
▁scale
▁agencies
▁beaches
▁Unterkunft
mel
▁massive
▁advance
▁Original
▁Firstly
▁Jahrhunderts
▁erhält
tage
▁Umfang
▁Patienten
▁appears
▁19.
over
ür
cker
▁differences
karte
stoffe
▁producers
ph
▁reasonable
▁Har
▁improvement
▁Regional
▁Don
▁Sub
>
▁announced
▁Justice
13
▁Globalisierung
▁truly
▁box
▁recognition
▁zahlen
▁niemand
ita
DA
▁structures
▁Due
▁Check
▁meist
▁Ideen
▁economies
iere
▁Polizei
▁Au
▁described
▁Irish
▁Gast
▁Tourismus
▁Vielen
partner
ava
▁generation
▁Teilnehmer
▁calling
▁territory
zo
▁Bay
▁unit
▁Immobilien
▁entscheidende
▁shared
▁object
▁becomes
▁Resort
AS
▁schneller
▁seven
▁lo
möglichkeiten
▁Miss
▁feststellen
-1
▁monitor
ok
▁ahead
▁watch
▁Zugriff
lig
▁raise
▁consumption
▁6.
▁Seh
▁intensive
▁Control
▁bear
▁background
statten
▁released
▁mittlere
▁diverse
▁hören
▁jemand
▁geöffnet
seitig
▁write
▁wood
▁po
regelung
14
▁discrimination
▁Verträge
ving
pan
setzt
▁Tu
▁charged
▁mark
nimmt
▁Ta
▁river
▁Gemeinsame
elt
▁slow
▁Überprüf
ification
www
gu
▁statements
▁Com
▁models
▁Par
▁legen
bruch
▁continued
ara
▁ma
▁Einheit
TA
▁membership
▁äußer
▁Landschaft
eck
▁availability
▁Barroso
▁institutionelle
▁Rand
▁Formen
▁touch
▁Card
▁hergestellt
▁possibilities
▁Liebe
▁;
light
▁bequem
▁überprüfen
▁1994
▁Heimat
SP
▁eight
▁tief
▁ideale
Flexibilität
▁satellite
45
▁skills
▁schönen
tritts
▁urban
▁Rome
▁Städte
▁hingewiesen
ennoch
▁Data
▁Bedarf
▁Che
▁shop
ai
▁Foundation
zügig
▁Haut
▁wishes
weisung
verkehrs
▁unacceptable
Le
▁surrounding
▁relaxing
▁Wünsche
▁profitieren
▁glass
▁nearby
▁Michael
fällig
▁greatest
▁diskutiert
▁schöne
▁•
▁weight
▁begann
▁fi
▁trading
▁jüngste
▁print
▁symbol
▁combined
dessen
licher
ged
gruppen
krieg
Sterne
▁Verlust
▁miteinander
▁court
hy
sta
0.000
▁formal
▁Global
▁extreme
ep
▁Democrats
PPE
▁Wind
▁spread
▁Other
▁houses
▁allowing
▁regionale
ges
▁größer
set
▁sale
▁Marken
box
▁Maschinen
05
▁mission
▁freie
ants
▁Beach
istische
▁Führung
▁Bewegung
▁insurance
ET
ete
▁rapid
▁Obama
▁haupt
▁strongly
▁einsetzen
▁wirksam
zunehmen
▁gewinnen
▁hit
▁Mon
unt
▁buffet
ute
▁Maria
▁religious
▁aktuell
▁Niveau
▁union
▁unless
eur
▁Ci
▁Sand
▁register
station
▁Atom
▁completed
▁figures
5-0
▁Aussicht
room
▁unfortunately
▁Prä
▁pictures
▁attitude
kar
03
▁Report
produktion
▁Verwaltungs
▁Si
▁guarantees
geleitet
▁Va
▁Willen
▁effektiv
▁entitled
▁pour
han
▁Flugzeug
▁window
▁burden
▁hall
22
▁Wechsel
ng
IN
▁komplexe
akt
▁erweitert
▁genannte
ero
pf
▁Federal
▁Größe
▁Zahlung
▁wer
▁Turkish
ious
▁asylum
position
▁perspective
▁überall
▁beauty
anlage
▁Elemente
▁Ju
▁informiert
▁unterstütze
▁bildet
klang
Koordinierung
▁betont
▁denken
vorschlag
▁shape
▁Altstadt
▁beginnt
▁net
link
▁acht
sbereich
rang
▁beinhaltet
35
une
▁meaning
ika
▁registered
zieht
ably
▁Alternative
▁born
▁attractions
mas
lor
▁Poker
▁komfortable
▁Vienna
liste
▁Jeder
▁institution
▁Maße
▁meters
▁Institute
▁24-
▁recognise
▁Radio
▁spending
RA
▁Aktion
▁finance
▁taste
18
▁Diskriminierung
zip
▁devices
▁tasks
▁cards
▁Kurs
▁dedicated
▁Anlagen
▁entstanden
▁Anwendungen
▁besitzt
“.
▁Monat
pon
▁railway
Grundsatz
▁reservation
▁gain
üben
chärf
▁fit
ologie
Aus
▁golf
▁closer
▁Tra
▁grenzüber
kräfte
▁Latin
▁beschäftigt
leichzeitig
▁garantier
▁install
▁organisiert
▁Justiz
▁flat
▁Erde
06
▁Studio
▁Ereignisse
fähigkeit
▁failed
▁expenditure
rischen
ata
iti
▁externe
▁gestalten
▁platform
▁Sha
ans
▁session
▁Vorteil
▁forced
▁vollkommen
fo
▁Todes
▁Links
züge
▁device
▁stattfinden
ME
▁Austrian
▁Kräft
▁kept
▁Wall
ori
▁disease
voll
▁Rom
▁positions
kultur
▁Gerichtshof
▁advice
▁klein
▁PDF
▁zentral
▁erheblich
älfte
▁motor
▁fiscal
▁11.
▁advertising
▁numbers
▁storage
▁Anlage
▁Ti
ec
▁learning
▁reliable
ps
▁elektronische
▁defend
▁interessiert
▁totally
▁names
▁USB
▁Ordnung
▁Verständnis
▁Hinweis
▁blue
▁story
▁richtigen
▁compared
▁Another
ona
▁Any
▁Treffen
▁minute
▁establishing
▁Fenster
▁corporate
▁installed
▁claims
▁Gründe
▁Note
▁enables
▁Kopf
▁Very
▁dir
▁grow
mark
▁eröffnet
▁Manager
ij
▁urgent
▁unto
▁core
▁Hall
▁appeal
▁landscape
▁Foreign
▁weiterer
▁Kontroll
е
▁convinced
▁empfehlen
▁packages
▁Delegation
▁granted
▁Meiner
▁unmittelbar
▁deliver
von
▁luxury
▁Tiere
▁biggest
▁Generation
▁claim
gruppe
Das
▁ergeben
reg
▁verändert
▁festgestellt
99
▁mid
▁vereinbart
▁discover
▁Chi
modell
▁ra
▁deutsche
▁Nevertheless
▁intervention
▁schnelle
▁Märkte
ura
▁extended
▁dient
▁inner
zer
▁definition
▁counter
▁ausgezeichnet
▁memory
ock
▁Neue
▁3-
rin
bad
▁falsch
▁Kandidat
▁Farb
lässlich
ani
ture
▁saw
▁Christian
▁strength
versorgung
▁patent
▁ri
▁contrary
▁Wa
▁Alter
▁Min
▁Glück
▁Eindruck
▁passed
ama
▁unable
▁Liberalisierung
nden
▁quick
▁host
▁Netherlands
▁terrorist
hm
▁Company
ple
▁entsprechen
▁vers
rie
=
▁MP
▁moving
freiheit
▁Premier
▁warten
AL
atur
▁tut
▁mar
▁update
▁Rest
kontrolle
verteidig
▁election
▁tried
▁continues
▁church
▁zuvor
▁Regelungen
▁Vo
▁candidate
▁Vorsitzende
dere
▁überzeugen
▁Reaktion
oli
▁micro
▁lake
▁gratulier
cho
▁Eastern
▁verabschiedet
▁Zustand
ade
▁interface
▁wait
ath
▁weapons
▁Geräte
▁Weitere
▁Gebrauch
▁akzeptiert
▁fuel
▁ne
Unabhängigkeit
can
▁gegenwärtigen
▁Kor
fach
▁cars
▁Phase
▁solcher
▁ökologisch
▁Klar
▁maintenance
oni
vers
▁integriert
▁Yet
wagen
▁Patent
▁Special
beziehung
lastung
▁factors
▁rasch
gy
▁betrachten
▁laid
▁perfectly
▁sensitive
avi
▁Feld
▁Palace
▁sogenannte
▁Stadtzentrum
sofern
▁Karten
▁neither
▁teilnehmen
▁Constitution
▁pleasure
og
▁Theater
▁üblich
▁Studien
▁conclusions
tätigkeit
▁Bra
▁affect
▁Trag
ham
▁holidays
EG
wegen
▁chosen
▁Pool
▁Verhältnis
▁Wellness
▁Serie
schlägt
▁Gegensatz
behörde
▁flight
▁Good
wald
▁Verbrechen
04
▁bedeutende
▁Institution
▁fruit
gefähr
▁colleague
▁Book
▁einzigartige
van
▁Voraus
▁honourable
streb
▁Thus
▁bekannte
▁achieving
sel
▁remove
▁agency
▁Tal
▁delay
▁wachsende
▁veran
▁ausgewogen
▁Gesetze
▁Prozesse
▁extension
▁engine
▁Robert
▁ambitious
▁Under
fallen
▁artists
▁cu
▁vehicle
▁Zeiten
▁organization
▁�
▁Mor
▁rightly
heiten
ux
▁Sprach
▁Worten
▁extrem
▁evaluation
▁las
OS
▁Betriebs
▁regret
▁Definition
▁drawn
name
▁sold
▁gelungen
▁outstanding
▁Klimaanlage
▁erneuer
▁Maß
▁Kamera
waff
▁obviously
treu
schluss
▁ECU
▁Bestandteil
▁stands
▁mountains
macht
▁Direkt
bot
▁courses
▁constantly
wirtschaftliche
▁Gedanken
▁daraus
▁extend
▁Mag
▁umfassend
ology
▁Risik
bu
▁bo
▁Westen
▁parallel
▁obligations
▁continuing
▁Show
);
▁Englisch
▁Mark
▁wunderschöne
▁Non
▁Marketing
▁someone
▁River
()
▁aircraft
jahr
▁elected
straße
▁eingereicht
▁length
teilung
▁Grad
▁dimension
last
▁sides
▁Zi
▁individuals
▁Leistungs
▁Wür
▁organised
ct
द
▁rock
▁urge
▁Player
▁Royal
▁Korea
▁surrounded
▁emphasise
cent
▁Agentur
schleunig
▁Kombination
angebot
▁beachten
▁definiert
▁equality
▁yesterday
▁Bahnhof
▁Fotos
dis
▁club
nstatt
▁Lord
▁commitments
▁factor
manchmal
▁8.
ruf
▁Papier
▁Formular
▁conduct
eugnisse
▁Agency
▁Los
▁mode
▁wonder
▁accessible
▁Laufe
▁eingeh
▁Aktionen
▁#
▁multiple
▁Summit
▁chain
▁rechtliche
▁intention
PC
post
▁zukünftige
tter
▁Erholung
▁successfully
▁Palestinian
▁Fer
▁User
▁Kon
ys
▁comp
▁blood
test
▁Wald
▁gemeinschaft
▁registration
▁Burg
▁Glas
zeigen
▁Beschluss
64
▁browser
▁Gemeinsam
▁repeat
▁konkret
▁comply
ico
▁facilitate
▁category
▁store
richten
ziert
Bei
▁Planung
▁emphasis
▁criticism
▁asking
gri
benso
▁prepare
▁Ausland
▁Experten
▁Arbeitsmarkt
▁independence
▁sorgfältig
▁Kur
▁Architektur
▁überein
▁merely
▁einverstanden
▁Zoll
▁russische
rangig
▁Use
nummer
act
▁physical
▁limits
▁III
▁Empfehlungen
”,
▁Island
▁Dis
▁obvious
▁ähnliche
essen
▁geschieht
▁mechanism
▁sage
▁Dom
▁Jugend
▁Kar
▁Cha
▁species
kreis
▁speziellen
▁Tagung
ज
▁payments
▁determine
▁balanced
▁gehalten
▁Located
▁ship
ska
az
▁früh
Al
▁changing
▁Environment
▁Mini
▁multilateral
▁außerordentlich
arm
ú
▁operate
wing
▁uses
▁stimmt
▁ausländische
räumen
▁Beschäftigungs
▁Typ
▁Süden
▁recommendations
vel
▁zugänglich
▁rail
▁Square
▁metal
richtlinie
▁license
▁furnished
netz
▁Farben
punkte
▁putting
▁contemporary
▁Freunde
▁targets
MA
nz
▁Herz
▁flow
▁Teilnahme
bildung
▁Streit
ndlichen
tief
▁contained
▁communities
▁Time
▁kaufen
förderung
▁Voraussetzungen
▁Both
▁waiting
▁liberal
▁goals
paket
▁disposal
▁conclude
ht
▁Jean
▁zählen
Lo
▁fühl
▁technological
▁Beim
▁spricht
▁journey
IA
▁Nor
▁damals
▁Its
▁approximately
teile
▁mini
▁consists
▁erfreu
▁treten
▁define
▁sicherstell
europäische
▁Datenschutz
oc
quality
▁il
▁Autor
das
▁deposit
▁Tod
▁participants
▁universal
▁ho
▁Innen
schreitende
▁recovery
list
▁log
▁Ki
ida
▁professionelle
▁White
istic
▁1992
▁mittels
▁unterscheide
▁ältere
▁übernommen
anz
▁Abschnitt
▁prevention
▁vorher
len
▁installiert
material
▁Blog
▁mail
▁substantial
wäg
▁Freude
phrase
▁Sc
▁jungen
▁sonst
▁controls
▁bringing
▁selten
▁geling
▁Hauptstadt
▁Minderheiten
▁Arm
▁explain
▁zeit
▁Monte
▁Master
▁letter
▁seeking
tech
▁skin
ev
▁erhebliche
▁Putin
▁abhängig
▁Problemen
▁bewegen
Pa
▁Those
▁Treib
▁steel
ati
OR
▁planned
▁wild
▁photos
▁guaranteed
▁decades
▁sinnvoll
▁Grunde
gas
forschung
▁Alliance
▁Rechnungs
▁Export
▁representative
▁Eigen
▁notwendige
ments
▁gebe
responsibilities
▁lose
▁Essen
IL
äni
▁capable
▁resulting
▁Audio
Ro
▁Enjoy
500
▁erfolgreiche
▁profit
▁wirksame
▁sieben
▁association
ris
▁anbieten
▁gestaltet
ppen
▁Nahrungsmittel
haften
д
▁nearly
▁Vom
▁strengthening
wi
licherweise
▁acceptable
▁Inn
▁Gegend
▁noise
▁Austausch
▁pointed
▁guter
laden
MS
Ab
▁drawing
▁manufacturing
schränken
▁Touristen
ängt
▁Element
▁00
▁langen
▁Zug
km
▁präsentiert
▁Nichtraucher
▁convenient
▁Revolution
▁zone
▁secret
zeiten
▁Sweden
alter
▁eye
▁Religion
▁Angebote
CC
LE
▁blog
machen
geräte
▁dinner
▁Rules
▁Mensch
▁Signal
▁Auftrag
▁identity
▁Sound
07
af
▁op
ld
▁smaller
hält
▁OS
▁Charter
▁Effizienz
pol
▁sell
cre
▁21.
▁governance
▁Apartment
▁Pension
▁Jan
▁Energy
▁Hilfs
CD
▁vollständige
▁Express
▁reflect
▁wiederhol
▁Chamber
isches
▁Kooperation
▁JavaScript
ration
▁Paläst
▁dr
schiff
▁Ern
▁ta
illa
▁acts
reise
mes
▁adequate
ía
programme
Kontinent
gesellschaftlich
▁consensus
ausschuss
▁Act
▁Morgen
▁Ga
▁explore
▁Gericht
▁Wesen
▁großes
▁thereby
schicht
▁primary
▁truth
▁grounds
karten
▁Black
▁perfekt
17
▁teilen
▁Old
▁audio
▁driving
▁Weiß
▁Budget
ney
eb
Innen
▁School
▁fällt
▁Methode
▁Fax
einrichtungen
itz
▁König
bach
▁Trotz
▁sensible
▁southern
▁Sach
▁Symbol
losen
▁password
▁Romania
▁impression
▁Offen
▁reagieren
▁Schwarz
▁weg
▁erscheinen
border
ré
künftige
well
▁schönste
hang
▁Schwerpunkt
▁basiert
smöglichkeiten
▁farm
▁ließ
wettbewerb
zahlt
▁George
achtung
▁finde
▁Gewicht
▁Dutch
▁Eltern
▁Mitgliedern
▁causes
▁liability
kal
▁48
▁expensive
▁addressed
▁launch
▁?
▁Two
▁industries
▁Sp
▁requested
▁contents
cing
gegangen
▁Wahrheit
▁siehe
▁mother
▁respekt
ova
▁discussing
Programm
▁enorme
code
▁primarily
▁forest
▁Bu
right
▁Krisen
▁default
▁King
▁sand
SC
▁Pflanzen
▁abgestimmt
▁Mutter
▁opposite
▁outdoor
▁verein
▁Take
▁Wild
▁erhältlich
▁Nachfrage
▁previously
▁Day
▁testing
▁copy
ID
Veröffentlichung
fest
▁album
▁nation
▁block
gan
▁reicht
▁Nice
Berücksichtig
31
▁100%
▁attacks
version
▁tra
▁leads
eg
met
umwelt
▁höchsten
ast
schi
▁Prodi
▁nochmal
enken
▁patients
▁ähnlich
▁apart
▁Vision
mut
▁),
▁konstru
▁Ur
▁fertig
▁produziert
▁gefördert
▁Set
▁continent
95
▁{{
▁Geb
organisation
sur
▁Verbot
AP
Der
▁angemessene
▁Financial
Adresse
wind
bereiche
▁effiziente
▁turned
▁Dublin
sagen
NL
itäre
▁master
▁dürfte
▁Gründung
▁effizient
▁Rotary
▁Schulden
▁Methoden
▁Mir
weite
▁solid
kurs
▁bedeutend
▁Haar
nische
▁renoviert
▁Ton
▁bars
▁soft
▁Bucht
▁bio
▁roll
▁Freizeit
niveau
sprogramm
▁langsam
▁Vater
▁Berufs
▁beschränkt
▁determined
▁territorial
▁Lehr
▁Trek
▁Ganz
ät
▁Java
▁Geschäfte
}}
▁Flash
▁mutual
08
▁em
▁books
äle
▁1980
▁Anliegen
▁Cal
top
To
tain
▁cheap
▁Kind
▁piece
▁Details
▁Veranstaltungen
▁highlight
linie
Me
PA
▁behandeln
▁lokal
▁stone
▁willkommen
▁Kaffee
▁Schweden
frei
▁delivered
nu
▁Stück
ram
▁Fälle
hor
▁consultation
▁president
▁Thanks
schaften
▁diesbezüglich
▁mandate
▁nations
▁Anbieter
▁kleiner
▁Bre
▁Fluss
örter
▁renewable
▁Verhalten
kämpfen
▁Paper
▁valley
▁begonnen
pel
▁Schloss
▁feeling
▁Gut
02
▁dealt
▁appreciate
▁Well
gerät
▁1993
▁cable
▁reply
▁Stunde
▁Dach
▁medizinische
▁freundlich
5%
tru
▁David
▁leadership
▁Spiele
▁assist
▁gr
strafe
my
▁une
gebracht
▁vielmehr
▁est
▁named
▁diversity
▁brings
▁amongst
achstum
▁Bedro
▁father
mmer
▁Drei
▁Despite
▁höchst
bezogen
▁führte
leiten
2-
▁wall
kommt
▁>
▁interior
▁bereitgestellt
▁residence
▁intensiv
▁Sam
▁Operation
▁München
▁leiden
▁Eisenbahn
▁verlieren
▁sorgt
▁Gleichgewicht
▁Genau
gemeinschaft
bra
onsens
▁castle
▁Programms
▁sanctions
▁Kunde
▁Ger
sfonds
▁Lager
▁discharge
▁resolve
▁schools
▁talks
grenzung
▁qualified
▁Verkauf
▁Umständen
▁Inseln
▁Massen
▁confirm
«
lan
▁constant
▁Ve
▁feed
▁Main
▁Question
▁Blut
▁umgeben
▁EC
▁Gewinn
brechen
ón
▁Nachrichten
▁Norden
entscheidung
▁radi
ssen
▁Ya
▁Grenze
▁Mein
å
▁Bef
geführt
32
▁moved
▁friend
▁Kilometer
▁binding
75
ehr
▁Kreis
▁fill
▁Doppel
▁Ziffer
▁gering
▁Shop
▁Kommunikations
▁marked
austausch
▁gl
hä
ett
▁("
▁charming
AC
▁refugees
▁Eis
▁competence
kehrt
▁250
▁beschrieben
▁Tür
produkte
frontier
dacht
ugnisse
zit
▁situations
Er
▁offene
ius
eu
▁rejected
26
ight
▁existence
SV
band
▁holding
▁corner
▁Aussage
geschrieben
▁Empfehlung
mitten
▁manufacturers
▁Get
▁angemessen
▁Verfügbarkeit
▁obligation
▁türkische
pt
▁approval
▁Werbe
▁significantly
▁presentation
▁mechanisms
▁Minutes
tik
▁Schaden
▁heavy
▁ziemlich
▁reichen
PS
▁onto
xi
▁compliance
▁Dokumente
▁Dadurch
amerikanische
▁derzeitigen
▁Schäden
namen
dra
▁griechische
▁Voraussetzung
▁Action
▁berechtigt
▁destination
▁constructive
▁launched
via
ified
vert
▁Mat
▁Adresse
▁vorgenommen
fläche
▁NI
ray
▁heat
CS
▁Before
▁spaces
▁bedarf
▁Tre
▁fantastic
▁vast
▁Einkaufs
▁furniture
▁Studie
▁expectations
▁leisure
▁betreffen
ack
reiche
pack
▁Munich
▁Hans
▁pi
▁compensation
▁grüne
nder
▁privacy
▁Wä
▁helping
▁Music
▁consistent
Service
▁Tele
▁ID
▁output
▁offizielle
ves
▁au
sländer
▁expertise
▁Grün
mission
▁solve
▁Ze
volle
▁felt
▁Objekt
itäts
▁recommended
▁Datenbank
▁assume
dal
▁Fe
▁Kyoto
▁versions
ax
▁treated
▁sprach
▁invest
▁kinds
▁Badezimmer
а
▁Übernachtung
günstig
▁herrliche
book
▁contrast
sport
▁verlangt
▁gemütliche
▁ju
▁Sauna
▁möglichen
▁schließen
▁läuft
ches
card
▁Bahn
▁adapt
▁prove
▁cold
ille
▁relatively
▁prefer
▁südlich
▁DE
air
▁improvements
▁worse
su
▁Identität
▁Win
▁Camp
oordinier
▁gespeichert
▁error
]],
▁12.
ball
▁battle
▁cm
CO
pos
▁effektive
mitteln
▁Schlafzimmer
▁auto
▁Lieferung
▁figure
▁800
▁Mu
kehren
▁sonstige
▁shift
ido
shop
▁investments
▁Vice
▁valuable
staatlich
▁Tausend
▁gross
▁Handeln
▁Regulierung
▁Mer
▁Skype
▁tr
▁arms
▁fail
▁suffering
träger
site
▁entertainment
с
▁Eigenschaften
luft
▁schön
▁Fahrzeug
▁Bildungs
▁Tauch
idad
wo
▁stehende
▁Besonder
▁Brand
▁bedroom
▁Spar
ators
▁Pen
▁band
▁speakers
▁Diskussionen
▁Erreich
▁Deck
▁individuelle
▁trotzdem
▁cycle
uell
▁represented
▁Küste
▁lautet
▁9.
▁bemüht
▁dishes
.”
▁verlangen
▁drugs
▁Garden
▁Gran
ls
▁Gerichte
▁hochwertige
▁entlang
lösung
▁Beiträge
bro
ics
▁Terror
stell
▁Hände
▁Maßnahme
▁schafft
▁Ausstattung
▁Col
regeln
▁wealth
rry
sort
▁direkte
▁Schl
sicherung
än
▁Pack
▁Mur
▁danger
win
▁applicable
▁proud
plätze
▁arm
▁Frist
▁Allgemeinen
▁2009.
▁suit
olo
▁fraud
▁bedrooms
▁Suite
zogen
bl
▁award
▁Erste
lia
▁gestern
▁zweit
▁Where
▁disaster
▁Gestaltung
FI
▁Dauer
▁creative
—
isse
gna
▁delegation
▁Schiff
lä
▁Zahlungs
gewiesen
class
▁temperature
gezogen
▁Airbus
▁versch
yo
▁classic
tur
stärkt
▁Vermittlung
▁Sun
LA
▁zählt
▁36
▁Leitlinien
▁bezieht
▁collect
▁entered
▁seien
▁latter
▁Rot
▁whatever
▁Network
▁Dar
▁Technology
cht
▁qui
▁protest
▁Law
▁taxes
▁besucht
▁vacation
▁liefern
swert
▁rental
bre
▁kompliziert
▁boat
ž
▁units
▁Bord
▁wiederholt
▁arrive
▁keeping
reich
wünschen
▁Zusatz
▁Haftung
LT
▁Zins
▁geplant
▁streets
eller
▁cor
▁intellectual
▁substances
▁impressive
▁sauna
▁affairs
▁career
▁politicians
▁é
▁letzt
sländern
dner
▁copyright
äußert
technologie
100
▁(2
auch
▁ro
▁Wien
▁engineering
▁hair
viel
▁Schule
▁geist
▁Client
▁außergewöhnlich
▁interessant
▁trees
▁intend
ky
▁weekend
get
▁whilst
stock
▁operators
▁Asien
27
▁Britain
▁20.
▁tend
▁sh
▁Genehmigung
▁View
aire
▁Praktik
▁2010.
▁120
200
strebt
▁drop
AN
▁Ferner
ory
lon
▁involving
▁respective
▁sichern
▁Studenten
▁argument
▁helped
▁lounge
▁Plaza
▁runs
▁keiner
▁Browser
▁arrangements
defi
▁gewährt
▁Umweltschutz
▁600
▁sexual
quellen
▁finding
▁older
DS
RI
▁description
verwaltung
▁alter
▁Provinz
▁Konsequenz
▁planet
▁match
▁Defi
ological
23
greif
▁reject
68
▁frame
▁Welcome
▁era
▁museum
▁GDP
▁Format
▁Fu
schüsse
▁volume
TE
▁Boot
▁geschrieben
▁beträgt
▁Far
igt
inter
▁Life
▁exclusively
kin
▁colour
DI
▁naturally
▁personally
▁Dort
▁Antworten
▁75
energie
▁Safety
legt
▁mon
▁Strategy
▁react
▁couple
▁wenden
▁Wirklichkeit
▁Zimmern
▁articles
▁aktive
▁ausgerichtet
bri
▁exists
▁objects
▁Jung
ब
▁opposed
▁ba
schaffung
▁Dusche
glichen
▁Regime
bin
NA
sieht
fällen
▁erzeugt
▁Führer
▁streng
wort
▁Th
▁proceed
▁Liefer
▁Geschäft
schaffen
▁Erwartungen
bürger
▁Comp
▁1000
▁prä
▁recognised
▁Strecke
▁Optim
▁Güter
▁requests
▁17.
39
▁boot
▁familiar
▁mobility
known
▁lu
▁examples
gesehen
▁Kategorie
▁rück
▁remote
▁meat
ates
betrieb
els
▁schwierige
vol
▁Mode
ult
▁vo
▁Str
gesellschaften
▁ignor
▁suffer
▁laufen
zig
▁emp
▁cool
▁gebaut
▁Ambiente
▁amtierende
▁happening
made
▁Flüchtlinge
▁unabhängige
▁Bas
▁hart
tim
▁bedeuten
▁Wähle
▁happens
fello
▁Swedish
▁bridge
ebene
▁confirmed
▁Materialien
▁entdecken
▁Stellung
▁disk
▁Men
steuerung
▁schlecht
▁unver
▁Umgang
▁praktische
▁MySQL
tlichen
▁advantages
▁Wander
▁spot
serv
▁ones
spect
▁Bal
▁largely
▁diseases
▁Fein
▁accounts
▁weather
▁camp
▁reserve
▁exceptional
gg
kel
▁domain
▁überwach
mobil
î
zuhalten
din
▁faced
▁außen
▁drink
ora
▁13.
▁firstly
▁Ohne
▁abgelehnt
▁occasion
▁automatic
schläge
▁grundsätzlich
▁Mut
▁gest
▁besitzen
var
▁irgend
kt
EU
load
▁dans
▁obtained
ef
▁Hat
▁beraten
▁Las
▁hilft
▁Wegen
gebiete
▁Image
▁öffnen
dia
häuser
point
▁Vorsitz
▁gelegt
gesetz
format
▁involvement
aktion
ore
▁nahm
▁angenehm
ward
▁leaving
▁Bern
▁discovered
ppe
MI
▁offiziell
▁Strategien
▁Bett
▁Spezial
gesundheit
33
fu
TC
sichern
cc
▁Instead
▁Effekt
▁geprüft
dor
erzeug
▁Ausgangspunkt
▁Inc
▁visual
maschinen
▁gefährlich
28
▁Erinnerung
pul
▁GNU
▁Überleg
▁Gaza
▁bike
▁collective
▁typisch
▁hostels
▁gra
▁durchzuführen
▁treaty
stück
pool
▁Automobil
▁tests
▁pr
▁protecting
wiegend
▁preparation
▁1991
▁requirement
ziel
▁sit
▁Bed
AM
▁Mangel
passen
▁covers
drückt
▁Kann
mos
▁Reserve
▁tea
▁Schiffe
▁except
▁Regen
▁equally
▁begrenzt
▁handle
pläne
row
▁Veranstaltung
▁Luxembourg
▁websites
и
▁1989
▁Übereinstimmung
sbedingungen
anischen
$
▁passengers
34
▁temporary
▁Stahl
▁Werke
▁ru
▁senden
▁removed
Do
▁zuerst
▁stations
▁SA
treiben
▁strategies
reform
▁tri
▁Hostel
geschäft
▁Mail
ox
ets
▁sets
keiten
aktivität
▁religiöse
▁Sicherung
ient
▁Croatia
CI
▁unterst
▁Marina
stände
â
struktur
▁tours
zel
▁Procedure
▁spoke
▁Japanese
▁Mikro
ivität
schreiben
ace
nom
▁Angst
▁Küsten
▁Fernseh
▁relative
Co
▁liberalisation
▁komplette
▁Kas
▁Besitz
▁einig
▁verändern
mitglieder
quer
▁schreiben
▁fl
▁Balkon
finden
▁Stock
▁experiences
▁Kontext
▁Rock
nehm
/2001
▁lovely
cip
▁erreichbar
▁erstmal
▁dream
▁Balkan
gehoben
▁handling
▁eyes
▁neuesten
▁configuration
▁remaining
▁bestätig
▁gerichtet
pu
run
▁glad
▁16.
▁rec
▁Islam
▁Tom
▁Kra
▁musste
▁Second
▁Gang
▁Taiwan
▁sichtbar
55
steuer
▁Bulgaria
▁Autobahn
▁Hi
▁awareness
rent
▁fighting
▁Ladies
▁Kat
▁restrictions
▁37
schwäch
▁Pra
▁TO
film
gewicht
▁lebt
schnitt
gunst
▁10.
gelöst
▁OF
▁fee
▁healthy
▁aufzunehmen
▁gewalt
nicht
▁submit
▁Beruf
▁replace
▁Normen
▁dahin
▁33
▁pick
▁Aktien
▁earth
▁50%
▁serves
SL
▁fehlt
▁Blue
▁abroad
TH
wältigen
▁officials
▁Opposition
▁Viertel
ierenden
▁balcony
▁recommendation
part
dro
▁Elektro
▁Glaub
▁Dä
ehrt
ane
▁Beispiele
▁dich
▁inflation
▁newly
▁Bestellung
trieben
with
▁gold
periode
▁Mission
▁richten
▁edge
▁verhindert
steigen
zweck
lau
▁returned
hören
▁seat
▁Plenum
minute
arch
lay
▁organizations
▁Ministers
▁involve
design
▁suite
▁Indian
▁grosse
▁Alt
▁listen
▁verkauft
▁reden
▁ethn
▁laden
▁dining
▁USD
rolle
▁issued
▁visa
▁Town
▁Pla
▁artist
▁Executive
▁gelöst
▁strict
▁Schönheit
its
▁integrierte
▁Ber
2.
▁identify
▁Washington
eth
▁technologische
▁Canada
ello
read
lands
▁Reservierung
▁maintained
▁transportation
▁Gentoo
gli
▁ausgeführt
▁Monetary
▁characteristics
▁Ungar
▁Still
▁Anfragen
▁operational
tig
cer
▁befass
▁Standort
▁Verantwortlich
▁ausgesprochen
▁brief
Star
▁vous
▁Vorgehen
▁ruhigen
▁Their
▁gender
▁dé
urs
▁precise
▁Shi
▁Kongress
garten
▁Bulgari
▁Church
▁Sein
▁Schatten
▁erlebt
▁belief
▁Freund
▁erlauben
▁UNO
demokrat
▁hervorragend
würdigkeit
zubringen
▁Award
▁legt
nsbesondere
▁erinnert
▁Thomas
▁heiße
▁Hohen
▁Casa
▁ko
▁gezogen
▁entdeckt
▁Hostelsclub
▁offices
lei
▁Vel
würdig
▁texts
IM
hol
▁Box
▁spezialisiert
▁decisive
▁Milch
▁Congress
▁Hof
▁übernimmt
▁gap
п
viertel
gut
▁unterzeichnet
▁ausgewählt
▁renovated
RC
GA
▁anschließend
▁representation
▁ausgeschlossen
▁Fahrt
▁trag
bal
▁Zusätzlich
stellt
erei
▁Find
▁funktionieren
▁Ban
▁decorated
▁Geschmack
▁waters
▁fashion
▁verbreite
▁Legal
▁gewonnen
▁religion
▁depend
▁begrüßt
fahrer
▁Widerstand
▁app
▁Kapitel
▁repair
▁Zyp
▁exit
nie
▁migration
▁unmöglich
▁passiert
▁contributions
▁Year
▁entrance
▁Beziehung
▁Kl
scale
▁Ausstellung
▁verdient
▁soweit
att
▁topic
▁depends
▁iron
▁BSE
CH
▁Fleisch
т
▁abuse
▁treat
▁Ä
▁leistungs
▁pension
▁RE
▁gone
▁geltend
¤
▁Maastricht
▁Verarbeitung
wunder
Ka
▁expansion
▁geboren
▁amounts
zierung
▁vorzu
▁Erhalt
▁News
▁mix
▁Schüler
▁Kriegs
▁lay
IG
leistungen
91
chten
klar
▁2.0
ntlich
▁Stoffe
▁Amt
▁Krankheiten
▁snow
▁east
put
chefs
rc
▁optimale
▁sauber
▁fla
▁Budapest
▁pan
▁5-
▁enhance
▁vereinfach
erkennen
▁Detail
▁niedrig
related
fern
▁Bearbeitung
▁buchen
uri
ave
▁Konsum
▁Zwecke
▁Redu
▁cha
rom
48
bhängigkeit
▁dark
▁hardware
▁blo
▁fa
▁Kan
97
▁geprägt
entwurf
▁sehe
-2
▁mü
▁generate
▁surroundings
nnen
▁mögliche
▁Werkzeug
▁Harmonis
▁01
▁Back
▁ethnic
▁walls
▁auftreten
▁verur
OL
▁MEPs
▁regularly
Se
▁Sonne
▁Edition
▁label
▁acknowledge
▁conducted
▁Farbe
▁Rechtsgrund
▁Mont
▁properties
▁angesehen
▁aufgefordert
▁reserves
UR
Projekt
▁Polish
▁Amts
flug
▁contracts
ê
▁ride
▁interpretation
▁mangel
▁catch
initiative
▁quarter
▁Sunday
▁bisherige
▁ticket
fried
▁transition
▁mi
plans
▁Umfeld
▁Friday
getreten
▁qualifizierte
▁letzter
▁konzentriert
▁afternoon
▁regulatory
kräftig
▁Urteil
▁achten
▁trend
wertet
▁unverzüglich
halb
▁Noch
29
Mo
ierende
▁reduziert
▁fleet
füllen
zugang
▁maritime
▁performed
▁northern
▁ultimately
▁wa
▁charges
▁Prinzipie
unk
▁Glauben
▁Krankheit
fel
▁Ce
erfordert
▁Ware
▁sum
▁somewhat
▁communications
ehrg
▁Hol
▁entwickelte
▁centres
▁Cyprus
▁collaboration
level
▁fix
pri
▁Gepäck
▁kostet
▁traditions
▁lag
▁hundreds
stil
▁verstanden
schuss
▁trifft
tom
▁Plattform
LI
▁Gesicht
fin
▁connect
fug
▁parents
sser
▁Rund
▁customs
urlaub
▁hostel
down
▁durchführen
licht
▁load
TS
TI
meister
▁Water
handlung
▁joined
€
▁expert
▁vorbereitet
▁WLAN
▁nieder
▁drug
▁discount
▁herrscht
▁Strukturen
▁invite
schöpf
▁erforder
▁avec
don
▁calm
▁li
bett
▁Professional
mor
BA
▁Vorstellung
▁millions
▁stylish
verhältnis
▁einfacher
▁parliaments
▁minority
▁displayed
▁sodas
▁zurückzu
▁occur
▁steuer
▁frequently
ös
Strategie
▁Kroatien
▁bezahlen
▁driver
▁34
▁cash
lat
rot
▁Ursprung
▁Mandat
▁Ac
ole
▁Director
36
▁Strände
deckt
▁west
▁gift
like
▁insist
▁Panorama
▁updated
pot
leistung
▁electricity
▁Protection
-19
▁perfekte
▁ought
ties
SI
▁Gesetzes
▁youth
▁verbringen
▁Cam
▁grateful
▁reported
▁kontinuierlich
▁investors
hör
▁Intervention
▁emergency
▁Sony
▁boost
smaßnahmen
▁beruht
▁Framework
▁Know
▁Investment
▁Konzern
▁organized
▁Mitglieds
Bahn
▁pen
misch
▁messages
palästinensische
▁Bew
Ha
meter
▁Zuge
▁Muse
lit
▁Speise
▁Baltic
rück
ausgabe
▁kostenlose
▁conflicts
yl
anda
▁Hinter
▁directives
fang
tour
▁owner
▁KMU
▁demanding
}})
▁ober
▁bottom
▁Kreuz
▁succeed
▁Inflation
▁finanziell
heitlich
führt
▁liefert
▁constitute
▁Erlebnis
tergovernmental
▁Muslim
▁faster
▁retain
▁va
ulation
▁Wichtig
▁increases
▁Ball
▁divided
▁looks
▁schwedische
ando
▁meant
▁Deutsch
▁impose
▁10%
tem
▁kurzfristig
raft
▁Geschwindigkeit
▁knows
▁willing
▁Email
▁Update
▁bestimmen
nachteilig
▁seeing
▁techniques
▁serviert
▁({{
▁constitution
egel
▁berufliche
▁Gra
boot
án
vertrag
66
▁zentralen
▁eat
▁heritage
▁2012
▁Ideal
▁widely
▁Customer
▁multinational
▁angepasst
▁trial
▁Werbung
▁straight
▁Europol
▁Feuer
Or
▁declaration
ssozi
és
▁intelligent
▁(1
▁geeignete
Con
▁Gerät
wege
aj
▁pollution
▁hängt
▁welfare
▁proof
▁demonstrate
▁konsequent
▁Israeli
▁Science
▁Zone
new
▁visible
▁weitgehend
ear
▁cutting
genügend
▁protocol
▁statistics
▁producing
▁Räume
▁proved
▁delighted
▁Earth
läufe
ermaßen
▁2013
swegen
▁Unternehmer
selbe
▁Karl
▁Christ
quote
▁Faktoren
lot
▁Konto
▁relaxation
▁tackle
▁eingegangen
wärm
stoß
▁18.
▁personnel
ras
gue
▁channel
▁Tool
▁Metro
▁helps
▁halb
tabilität
▁Mexico
▁Hostels
freundliche
▁Kompetenz
rt
▁Food
▁verleihen
tle
handelt
▁subsidies
schlags
▁Verri
▁Whether
merk
ée
▁percent
ngerung
▁historisch
kette
▁jetz
gleichen
zuführen
Sp
maschine
▁maintaining
mus
▁bright
▁entsteht
▁gezwungen
▁Malta
por
▁Sammlung
▁2008.
korea
ition
▁prison
▁accident
▁count
▁library
▁Transfer
▁department
▁careful
lass
▁Schließ
ula
▁Statistik
▁geboten
▁oral
bor
▁identifi
▁strenge
▁ersetzt
▁opinions
Vi
▁inhabitants
auern
▁Kom
str
▁focused
COM
▁existieren
asse
Arbeitsplatz
krise
▁assure
▁cooperate
key
ili
71
▁20%
▁Wirtschaftsw
▁showing
▁Place
dienstleistung
uit
▁kämpfen
▁stolz
neu
bis
▁exciting
▁geringe
▁Spannung
▁gespielt
▁Schuld
▁Portuguese
▁Prague
iva
▁referendum
▁understood
▁Gewährleistung
▁orders
ENT
▁plastic
lear
▁arise
▁Subsidiar
▁competent
roll
wide
lie
▁demonstrated
ever
▁indicated
▁EN
▁Em
media
▁corresponding
▁safeguard
▁Ltd
▁chemische
▁Verbreitung
▁14.
▁Copenhagen
ähr
informationen
regierung
▁Handlung
▁Holiday
▁Investor
▁channels
fördert
▁erleichtern
▁ferner
ationen
▁honour
rates
▁follows
▁male
▁Common
▁involves
▁cosy
▁foundation
▁finish
▁Single
▁Soviet
▁settlement
▁ergänzen
▁visiting
▁stored
belang
▁generell
tellung
ose
▁Access
zentren
just
▁Ankunft
behalten
bed
!!
▁Rezeption
Sa
▁Anwender
▁visited
▁1970
▁resistance
▁starten
▁Leitung
▁depending
▁appearance
▁accompanied
▁Verfass
▁App
▁cap
▁Who
▁Ruf
▁Alpen
▁suites
▁Termin
▁Hohe
ban
MO
▁windows
▁Full
▁tu
rea
▁Cu
▁Professor
▁comparison
▁Pact
▁hinzufügen
▁sta
aries
▁carbon
▁massage
lines
▁bedroh
style
▁proven
▁overcome
ontext
▁behaviour
prozess
▁Deutschen
▁Meeting
kl
▁fitness
▁vorbei
▁wann
]].
▁individuell
▁ci
▁Registrierung
▁islands
▁Ed
strategie
▁documentation
85
▁citizen
▁Sorgen
▁15.
▁Newsletter
▁wollten
orgni
▁Georgia
▁Cap
▁prize
▁umge
ы
▁legitimate
gänge
▁pieces
llen
▁sugar
▁ongoing
▁answers
▁Indi
▁pur
▁spoken
▁facility
table
▁Adobe
▁resolutions
ira
▁finished
▁rational
linien
▁spectacular
erst
▁Brazil
▁Dienstleistungs
▁industrielle
hal
▁concluded
glichkeit
▁Bemerkungen
▁kurzen
▁angenehme
▁Given
▁mostly
▁consent
▁Schweizer
lle
cz
telefon
▁unfair
▁Wal
▁examine
▁Bel
▁profile
▁Kabel
cor
▁dates
sausschuss
▁Himmel
▁settings
▁provider
▁drivers
▁creates
▁flights
▁Page
▁connections
ery
▁effectiveness
Server
▁38
▁beendet
ill
▁plenty
▁exception
▁recording
▁Brief
bur
▁Tibet
▁Canon
▁verteilt
▁Yes
MP
▁passende
▁passenger
▁Punkten
▁Bibliothek
onne
▁tourists
▁hearing
▁mündlich
▁input
▁Perhaps
▁Schalt
▁erm
▁printing
▁Mari
sfähig
▁Training
▁bound
▁SMEs
▁rapidly
▁bill
▁Gespräche
sprachen
▁raw
▁mistake
▁Investitions
▁controlled
▁getrennt
ew
pra
-20
schrift
▁owners
▁einfachen
▁Pat
▁replaced
▁knapp
▁verstärk
88
mpf
▁Apple
CE
streit
▁Funds
onvention
49
▁echten
▁Fern
sfreiheit
rei
86
sia
▁lunch
örtlich
▁fulfil
▁scheme
▁emerging
▁minorities
spezifische
▁educational
▁bu
▁heating
▁grundlegend
Mar
funktion
▁Play
har
▁Ke
▁Pri
▁pl
▁immigrants
▁Anschluss
▁assets
▁hundert
▁Weil
▁Tip
▁struggle
▁categories
drücklich
ierungs
▁Gre
▁Kopie
▁trafficking
▁kontrolliert
este
zehn
▁opt
▁revision
▁signs
▁blind
ito
▁kontrollier
nahm
▁österreichische
▁Kirk
▁wines
▁Ol
▁ruhig
sagt
▁sah
▁Bücher
▁chemical
▁Betrag
wanderer
▁Nummer
▁Konzert
ändliche
▁definitely
▁imposed
vorschläge
trag
▁Description
▁awarded
▁pursue
▁speaker
▁42
▁usual
▁James
▁Consumer
▁constitutional
▁Net
67
▁WC
▁Hungarian
▁switch
▁deals
▁doesn
▁Metall
з
AG
▁Korruption
▁Max
las
kur
▁manufacturer
▁Il
▁Auge
▁Anmerkung
gl
dos
▁recorded
CA
▁concert
mord
▁zer
holen
▁Einschränkung
▁HD
▁reduzier
▁Webseiten
▁Travel
▁Games
▁Chancen
▁corruption
▁gardens
▁traditionell
▁Betracht
▁edition
sign
▁Fo
▁woman
▁Kenn
▁organisieren
ident
▁ou
▁milk
▁Project
44
▁elegante
▁installieren
▁sex
▁compatible
▁meaningful
▁israel
▁Könn
▁Massage
38
▁Partnern
▁casino
▁Gefahren
beziehungen
Applause
▁departure
▁centuries
UNG
rio
ktive
▁Pol
▁destruction
▁magnificent
▁Betrug
▁Prag
▁chair
▁Sil
norm
werben
lösungen
▁lobby
ı
▁beschäftigen
duc
tas
▁firms
▁credibility
termin
▁virtual
▁occasions
▁Heil
▁Cre
▁pop
WF
▁desired
▁Übertragung
gro
▁uniform
slaw
▁errichtet
▁Eigentum
▁Komponenten
trieb
▁offenbar
mäßige
operation
▁grant
▁adopting
erbe
▁Ei
ctor
▁antworte
▁containing
▁verbind
gäste
▁Miet
▁friedliche
▁ice
▁Laut
▁Route
▁Wetter
▁Stra
▁Northern
▁mitten
▁charm
▁Gegenstand
▁ursprüngliche
▁Stockholm
ZB
▁Wahr
▁neutral
▁respected
▁appointed
Bericht
▁dance
▁arrived
▁revolution
▁Förder
▁irgendeine
▁possibly
▁Puerto
▁älte
eva
▁behalten
▁tickets
▁Lauf
issen
▁Stimmen
▁Entscheidungs
VO
▁Apart
▁expand
▁Jahrzehnt
▁Argument
▁Marktes
▁correctly
▁Belgium
▁subsidiarity
hold
▁korrekt
▁partly
gab
Datei
▁province
TO
▁Rio
▁Hungary
▁declared
Wir
▁65
▁vorstellen
▁rot
▁Hel
▁Fitness
barer
ु
▁sending
▁Brasilien
oo
65
▁stronger
▁judicial
▁division
▁Salzburg
▁dry
▁Exchange
▁Fundamental
▁bezahlt
griff
▁enjoyed
pl
▁fuer
▁Eurozone
▁brachte
▁transactions
▁Ch
▁Bemerkung
▁gallery
▁niedriger
▁hundred
▁Fö
▁2009,
py
zz
grad
▁manager
▁gewünschte
ih
▁erhielt
▁Renten
▁functioning
▁Erfüllung
▁Wandel
▁transatlanti
▁Websites
▁Following
▁narrow
37
schaftliche
▁legitim
▁Traum
terrasse
ami
▁Ehe
▁satisfy
▁Pin
▁verkaufen
▁proportion
▁satisfied
▁pure
▁Content
▁regel
▁eastern
▁Charles
▁luxurious
spir
▁Ausflüge
▁Structural
▁Untersuchungen
▁Hamas
gebühren
▁Fair
tis
gua
▁mu
▁Qui
▁Vorlage
▁cast
onsultation
▁minor
▁Oder
▁conditioning
▁Wissenschaftler
▁Darstellung
▁verantwort
▁enge
▁artistic
cut
▁günstige
konzept
oren
zukommen
▁Amendments
▁ball
▁solch
▁encouraging
erkannt
marquis
▁Visa
▁crimes
▁Tabak
▁slightly
▁Tel
bon
▁natürliche
41
▁Fremden
▁Desk
▁erwähn
▁substance
▁Internationale
▁taxation
▁Führungs
▁globalisation
▁inclusion
▁Valley
▁Filter
▁realistic
▁attend
▁Fußball
▁belong
▁functional
▁horizontal
gewinn
▁Netze
safe
▁Verlauf
▁films
▁zerstört
▁Gesellschaften
▁Gefä
▁prime
▁ka
▁Within
▁gefährdet
▁Freitag
uf
▁Lounge
▁distributed
▁adventure
▁debates
wann
sha
▁Schlacht
▁Beamte
▁trouble
▁rechtzeitig
OW
▁jenen
wir
demokratisch
Ä
▁aussprechen
▁routes
в
▁entspannen
breite
tta
▁eure
real
▁Kohle
▁Ticket
ación
ink
▁ST
▁pla
▁Angel
▁preparing
iges
▁Verfahrens
▁fro
▁Spaß
▁Bade
ström
teilen
▁identified
▁AKP
▁nützlich
kov
▁angewandt
▁komme
ima
▁miles
▁dargestellt
47
▁Mc
gängig
▁pilot
▁Rule
▁eingebracht
▁component
spolitische
wirkung
nce
▁addresses
▁brutal
▁considering
▁Steuerung
▁Mitgliedschaft
suchen
▁Women
▁Tro
▁Call
▁thousand
▁angelegt
▁extraordinary
▁adults
▁Institut
reisen
isierte
▁deficit
strich
▁imagine
freien
▁Monday
▁Baum
▁Versammlung
▁Olive
▁survey
▁elsewhere
▁ce
▁Verletzung
▁Kaiser
▁Tennis
▁eventually
bring
▁BMW
oth
gh
beschreibung
zahlen
▁Thursday
▁OR
▁Bauern
▁Charta
▁ultra
▁condemn
▁endorse
▁resolved
▁Städten
▁Kopenhagen
▁plenary
pr
▁Tochter
stammt
▁Orte
▁Kong
kern
▁Anstieg
▁contacts
▁Ag
UM
▁sleep
änderung
▁committees
problem
bt
▁Castle
▁musical
Ü
▁Nachbar
▁typische
▁Space
▁suppliers
▁stick
▁manufacture
▁Gri
▁individuellen
▁housing
cio
▁Satz
verfolg
▁appeared
▁Kampagne
300
▁Zeitung
▁army
▁za
gericht
▁surprise
▁absence
▁director
▁Assembly
effekt
▁empfohlen
Konfiguration
▁organise
▁info
Com
▁kritis
▁Parkplatz
▁th
entgelt
▁custom
▁Mobile
▁Spr
▁sphere
▁Game
▁sichere
▁Thirdly
sbehörde
▁55
iff
national
▁Mas
ically
mont
▁vermitteln
▁wertvolle
▁Add
▁englische
▁empfangen
▁Volkswirtschaft
▁Wochenende
▁duties
▁Mos
igh
▁grand
Li
gerufen
▁filter
dies
▁Sicher
▁everyday
▁luxuriös
▁Problems
▁executive
▁Medizin
▁VAT
▁noted
▁Nachricht
mitglied
▁Piazza
▁Zell
▁actively
▁inklusive
agentur
▁formed
rüchte
▁Handy
▁Freunden
▁stammen
landschaft
lösen
läuft
▁warning
▁weltweite
▁minimal
alität
▁concentrate
▁Mel
▁Solar
▁fourth
▁vulnerable
projekte
▁Without
▁Spitzen
rechnung
▁Account
▁excessive
▁Parameter
▁Bri
▁Among
▁Education
▁beteiligen
breiten
qua
bert
▁scene
▁Vorder
▁Gro
▁Optionen
▁Balkans
▁principal
▁Satelliten
▁hinweg
▁solely
▁kamen
team
rill
▁providers
▁tobacco
▁courts
▁überprüft
▁auseinander
▁2007.
▁HTML
▁Cup
▁organize
▁chapter
ule
▁BE
▁ye
▁proposing
▁Lobby
organ
▁Able
meldung
▁{
▁starts
▁Staates
nahe
▁Like
▁geliefert
ats
matic
▁Palm
▁rising
▁shock
2)
▁Bur
wiesen
/97
sorge
▁Getränke
▁Modern
▁western
For
una
▁proposes
▁Armee
seiten
▁gesunde
▁locations
▁nine
▁EP
▁Lehrer
weis
▁Saturday
gefühl
til
▁Luxemburg
bedarf
planung
▁supplies
spielen
▁Misch
▁packaging
▁95
▁nevertheless
▁wrote
▁beobachten
▁Have
▁verboten
herstellung
rap
▁Tschech
suite
projekt
▁beruh
\
▁Bestimmung
▁mut
▁dead
▁Käufer
▁IV
leitung
ars
▁Projekten
OM
▁della
dan
ffer
▁countryside
pflicht
अ
ua
hersteller
▁Pl
▁applying
51
GB
43
▁university
▁carrying
▁lift
▁root
▁empf
spiegel
▁gekennzeichnet
uring
währt
decken
▁Sohn
field
Amerikaner
worfen
erhalten
strasse
gie
still
▁didn
pp
▁Nos
raten
▁nights
59
▁MO
▁cent
frist
▁shipping
sein
▁Entspannung
▁Deine
▁beträchtliche
▁großem
enfalls
▁aktivieren
▁Schon
▁eingestellt
▁pu
▁machte
▁iPhone
▁Road
uellen
▁64
Vizepräsident
PP
try
kunst
▁Willkommen
▁Mallorca
▁Work
▁Donnerstag
▁Allianz
▁Belgien
▁birth
▁Schau
glieder
▁fu
▁voluntary
▁Sterne
▁Anlass
ank
ST
▁height
▁generated
▁Point
▁crew
kunden
▁forum
▁towns
▁upper
▁song
ect
▁drinks
▁Schnell
▁supplier
▁lessons
▁Mitarbeitern
▁endgültige
NE
▁illegale
▁Gel
▁shadow
▁theory
rand
▁Mrd
rungen
ester
imo
▁gets
sendung
▁Sonntag
▁Abfall
▁Sat
▁Prof
▁Bill
▁humanit
rel
▁Schulen
körper
▁SAP
NET
▁sexuelle
ific
▁Tourism
▁philosophy
▁robust
2010
▁privat
▁fur
Bo
н
▁gained
▁verbindet
▁Louis
▁neun
▁resource
▁wage
▁rare
tsch
▁gewünscht
▁Egypt
▁bra
▁gestattet
head
▁Nu
▁Potenzial
▁suggestions
▁standing
▁Hardware
▁acc
güt
▁Bö
▁diplomat
▁logo
▁Genieße
▁professionals
té
▁Besides
▁existiert
▁greatly
▁Atlantic
▁Schei
▁Stuttgart
schule
▁Montag
ituated
▁Part
▁schicken
▁rechtlich
▁Ref
gebieten
▁potenzi
▁index
у
▁Agriculture
▁gal
kürz
▁700
▁Arzneimittel
SK
▁reaction
rich
о
▁cell
▁beantworten
▁satisfaction
indernisse
▁suggested
ologische
ý
▁taxi
▁Ap
▁patient
▁upgrade
▁Vietnam
▁regarded
▁Bla
▁Wissens
▁toilet
sky
▁receiving
Software
▁Next
77
▁Kontakte
▁Hügel
▁banking
struct
▁Reinigung
▁ré
spiele
▁permit
▁ACP
phy
automat
▁Playa
▁updates
date
▁teaching
▁polnische
▁Luxus
▁shares
▁Thailand
gibt
▁Warn
lam
ego
▁Light
▁savings
▁confirmation
▁difficulty
▁recognize
▁lit
oid
▁Baby
anten
▁script
sy
▁Syria
▁invited
▁Extra
cs
▁stream
transport
USS
▁female
▁Having
Vor
▁ships
▁·
▁metro
▁Widerspruch
▁federal
▁transmission
▁realise
▁mental
▁Veränderung
▁delicious
▁Saison
zielt
eine
jpg
▁untersucht
▁Schrift
drück
sstrategie
▁specified
▁Sind
pin
rick
▁Marke
▁maximal
▁presents
▁ring
▁Fri
szeit
artige
89
▁investieren
▁berichtet
drücken
▁roof
iden
genz
▁Verzöger
▁enabling
▁lots
▁Wiederaufbau
▁einzigartigen
▁Normal
systemen
▁Übrigen
▁topics
▁Fahrzeuge
▁Finanzkrise
46
halle
AD
geber
▁lebens
▁bay
▁Disk
grenze
▁Augenblick
▁module
▁Album
▁leichter
▁arab
▁Ak
▁Cas
rist
▁Sky
▁Cla
▁PRO
▁score
й
▁sought
▁Stärke
▁Up
▁welt
▁Schwa
sphäre
▁Mängel
▁tan
probleme
▁labor
▁qualitativ
▁mild
▁Verteilung
▁exports
▁Zucker
▁Gerade
▁wohnen
▁Klaus
uni
▁Stiftung
▁disabled
rid
lagerung
▁concepts
▁alarm
▁Prüf
mu
▁präzise
kat
▁acting
▁gefallen
▁prosperity
▁betreiben
Mitgliedstaat
▁USS
▁Urlaubs
rou
▁Schlag
▁permitted
verbrauch
▁gesetzlich
aff
▁Strasbourg
stunde
93
▁dependent
leiter
▁destroyed
▁festival
▁Federation
▁Frank
▁Bekannt
▁Porto
▁execution
wood
▁roads
abel
steckt
▁Beschwerde
▁desk
▁einzusetzen
▁Belastung
ify
▁Stamm
▁Quellen
▁Schi
▁electric
tieren
▁kosten
92
▁interview
strukturier
▁schätze
▁berühmt
▁afford
▁killed
▁Länge
▁Herbst
▁Palma
▁eventuell
▁amazing
ase
sbericht
▁Beteilig
▁Budgets
gegriffen
▁tight
itation
EM
▁nördlich
▁publication
▁Katalog
▁overview
oper
stiegen
kenntnisse
▁Gerechtigkeit
ctic
dre
▁Os
▁ersetzen
▁societies
Version
▁Beide
▁dauert
uld
▁cancer
श
▁welcoming
▁Beste
▁harmonis
▁einzig
▁twenty
▁Ö
äh
▁icon
wan
ě
schieben
▁Spe
▁2008,
▁Mittag
▁Make
▁vorgestellt
▁Cra
▁Innere
▁qua
▁Golden
▁obliged
▁stellte
amt
ular
▁mussten
▁bekommt
▁Resolution
näher
aria
▁romantic
▁Trotzdem
hielt
▁Gelder
lem
▁Klasse
▁fo
He
▁significance
Ja
lung
▁Nein
▁mittel
▁Kanada
gründlich
▁movie
felder
2009
▁Culture
▁betrieben
▁attempts
stands
kauf
▁Kriege
fisch
chte
▁aufgebaut
▁Secretary
▁Quality
▁Br
tec
▁radical
▁William
▁Existenz
▁Unterkünfte
igkeiten
▁manual
▁olive
itt
▁Gehminuten
▁decline
▁Bars
▁football
▁SE
Frühstücksbuffet
▁unforgettable
▁theatre
▁breit
▁AND
▁nord
▁exclusion
HU
▁farming
▁composition
▁unterliegen
schalten
▁exklusive
▁günstig
state
lio
▁PSE
pen
▁tennis
78
▁verd
▁heading
▁portfolio
▁stake
geordnet
▁Para
▁reservations
▁interpret
▁rely
▁colours
space
üren
▁Maz
▁Out
view
▁superior
▁specialist
HA
▁Islands
▁Finland
▁arguments
friendly
hängen
VP
▁Akteure
▁Plus
▁vielfältige
▁Georgi
▁Roth
▁Reg
▁Socialist
▁westliche
▁Grünen
▁reg
▁wireless
▁missing
▁Ganze
▁freundliche
enten
▁Richard
▁schwere
▁Tar
▁harmonisation
▁Guests
eten
▁suffered
▁Asian
▁.....
▁digitale
▁MS
ssysteme
▁negotiating
▁begleitet
▁villages
▁aufgeführt
▁exp
▁geraten
▁forests
▁justified
▁politically
▁remained
FA
▁hierbei
▁recall
▁registriert
▁paying
▁Orient
▁Zürich
▁doors
▁richtet
▁renowned
▁supposed
▁Ter
wer
▁Verhaltens
cul
aut
▁Heizung
▁Av
м
▁directory
▁wenigsten
я
▁convert
▁instructions
▁falsche
▁langjährige
▁Based
▁Wählen
▁approve
▁Print
▁liked
▁Dreh
▁welcomed
▁Family
ér
sandt
▁Verkaufs
▁regul
wärts
▁herunter
▁Preisen
▁continuous
▁engagiert
▁string
▁EG
▁Islamic
▁Kranken
▁Planeten
▁enterprise
▁Geburt
▁ausgehen
▁Bonus
pil
▁Ring
▁gro
▁Perspektive
▁Alb
General
▁Dor
vorschrift
▁indicate
▁cleaning
▁studio
▁Nigeria
▁ser
steht
med
▁weak
▁gesamt
▁kontaktieren
▁faith
▁lie
▁hardly
▁kommerzielle
bas
▁LateRooms
▁novel
▁legally
▁complicated
▁contributed
▁skiing
▁Line
▁Auditors
▁productivity
lli
lag
▁Koch
situation
▁hell
ereitschaft
▁geringer
than
▁Sir
▁Micro
▁Hill
▁allocated
▁Statt
▁surely
▁könnt
▁herum
ject
▁progressive
▁preventing
▁Sar
▁supervision
▁Hundert
▁integrate
mid
▁push
▁Millennium
▁ti
▁VI
▁Gor
ité
bestimmungen
▁Schnee
▁Log
▁mitteilen
▁ecological
▁Australia
42
zerr
▁fehlende
▁Ste
onic
▁erhoben
▁plays
▁proceedings
▁tree
enkt
küste
▁fabric
▁covering
schw
▁ir
▁sharing
▁everybody
kratie
▁enabled
▁Halb
Wa
▁fr
▁directed
▁combine
sol
▁Vol
cord
▁commission
▁Modelle
holz
▁Gespräch
Gegner
cas
siedel
▁Bildschirm
zio
▁Location
▁Event
▁zugrunde
▁Chile
chluß
VE
orte
▁looked
▁Through
▁Passwort
Vertrag
▁Venice
▁Joseph
▁quote
dom
▁clarify
stoffen
▁Bes
▁Umsatz
▁MB
▁ceiling
urteil
▁Hong
schätz
vy
check
▁forthcoming
▁Alles
stra
▁refers
▁parliament
▁kleines
▁jüngst
▁villa
▁amenities
▁equivalent
▁imports
ogen
▁tritt
▁unzureichend
▁Portal
▁disc
▁Berge
leg
gestaltung
▁hospitality
zog
ñ
▁AS
▁geregelt
▁angebracht
Zu
98
▁Michel
▁verk
▁Nachbarschaft
72
▁getragen
▁Kriminalität
▁geographical
▁appointment
▁attract
▁Seele
▁Gal
▁angewendet
▁firmly
ali
▁Opera
76
▁Pflege
▁Lang
▁recognized
160
▁Entfernung
oon
▁compact
▁tower
▁tag
▁sensor
▁Eingang
bli
73
▁gewähr
▁wirkt
aufnahme
ista
▁escape
▁steigende
▁kombiniert
▁decade
UN
▁ergibt
▁Akt
▁anschließen
▁ports
▁Tan
69
▁Äußer
▁explained
▁erteilt
▁restore
▁blieb
▁earn
ò
play
ktiven
▁native
▁Videos
▁ordinary
▁wellness
▁chat
fähige
▁UNESCO
▁Stability
▁Öffnung
▁39
▁dispute
▁Temperatur
▁fans
▁Schwer
▁(*
▁programming
▁originally
tte
▁scheinen
kapital
LO
▁personenbezogen
}
▁introducing
bru
smoking
▁Should
▁investigation
▁parameters
rá
▁Leiter
tier
▁smooth
wegs
sid
▁Luc
▁schlechte
▁Geneva
Ex
ALE
▁lock
ais
▁Press
block
but
54
▁herunterladen
▁barriers
schädlich
wendung
▁Civil
▁preserve
▁dankbar
▁Pilot
ICHT
President
▁organic
cks
ith
▁showed
▁king
dar
▁whereas
▁Quote
▁teile
bil
▁Abendessen
born
▁Textil
▁vernünftig
▁Fahrer
oma
▁japanische
▁trips
sage
▁reflected
lehne
▁heran
iving
▁verdienen
▁ergänzt
rank
▁Parkplätze
▁Betten
CK
!!!
adi
▁momentan
enkung
▁Nachbarn
▁Dokumentation
brenn
▁zit
▁Häuser
wingen
▁anspruchsvolle
▁(3
▁gefragt
▁behoben
▁characters
▁vessels
▁Chinas
rant
▁teams
No
▁44
▁kritisch
▁turning
wed
fenster
▁wert
lk
▁obstacles
▁internen
▁student
▁Dritte
▁Area
▁Nachhaltigkeit
wel
▁sustainability
▁präsentieren
ici
srecht
▁sight
zon
artikel
▁Corporate
▁universities
▁zuzu
▁accurate
realistisch
▁Pr
uren
▁billig
zielen
beziehen
ias
onsolidier
▁collected
▁Alexander
▁Berliner
lov
ison
same
▁Emission
mächtig
▁clubs
RS
▁Lernen
▁43
400
▁saved
AU
▁Proze
▁Euch
▁Head
ül
▁Ersatz
-4
▁considerably
So
ergebnisse
▁Schlaf
▁MA
anspruch
▁aktualisiert
▁Serbia
▁cells
▁Wärme
▁indirekt
▁Schw
▁leaves
▁remarks
sbe
TRA
▁Fahrrad
▁NGOs
uda
▁soul
▁Photo
▁westlich
▁functionality
frikan
▁Bat
▁audience
▁museums
ökonomische
▁severe
▁AC
▁leg
▁flag
branche
werten
▁absurd
▁Börse
▁Modul
▁folder
▁Höchst
▁hilfreich
▁Does
▁permission
pper
ügel
▁Camping
▁rain
▁classes
▁assess
▁toward
▁enhanced
museum
▁genie
▁dein
water
▁Vista
stat
▁Block
▁reward
▁Letzte
▁restructuring
▁Ali
kom
such
▁Guide
▁withdraw
▁Son
▁Lohn
▁angekündigt
▁subjects
Staaten
▁undoubtedly
▁Tr
PO
▁umgehen
▁ECB
▁Flu
ierungen
werfen
mpl
▁songs
Mexiko
▁nu
ifi
▁dignity
vil
▁Christmas
▁Präsentation
▁regardless
IE
freie
▁Wett
▁exact
▁Kulturen
Auf
▁clause
▁irre
▁CAP
gor
▁penalty
leute
▁31.
▁Fol
▁cuts
sprozesses
HO
boden
rain
▁1960
▁Syn
▁eignet
iro
▁mill
taten
-/
ô
Straßburg
▁rum
▁Programmen
▁Einhalt
erie
rechtliche
▁united
▁Suiten
organisationen
▁dei
▁Revision
▁zurückzuführen
▁beabsichtigt
▁horse
saal
▁layer
▁sounds
▁Faktor
▁acceptance
▁fees
club
▁Nov
▁internationally
▁travelling
▁produzieren
▁EX
TER
▁modules
▁stabil
klasse
▁Transaktion
dringlich
ake
▁ehrlich
▁Verbrauch
hard
elli
Da
schuldig
inens
staatliche
als
▁schlagen
ville
▁Sh
▁formuliert
▁fan
▁errors
▁Visit
turm
▁ministers
▁zukünftig
▁Domain
▁Eintritt
▁Cri
▁worst
▁vernünftige
ire
▁labelling
▁adapted
▁exploitation
▁Fang
2,
▁pretty
▁Sachen
▁Taxi
▁Kirchen
▁Weiteren
▁Muster
zauber
▁Betriebe
▁till
▁XP
▁Betreiber
front
▁Ausrüstung
cast
denkt
▁optional
▁Pop
▁Hauptbahnhof
ario
▁none
pat
▁Spring
▁detaillierte
▁employ
▁branch
▁reaching
Qu
finanzierung
Ö
▁CE
behandlung
strom
rävention
sent
▁portal
▁sole
einigt
▁subsequent
▁sovereignty
▁с
▁stärk
▁Ägypten
aw
▁sc
produktiv
zar
▁Ursachen
tausch
ра
▁Alm
▁befasst
netze
▁Dokumenten
center
▁CA
▁Reisen
geworfen
▁transform
▁Designer
▁Märkten
▁erarbeitet
▁excluded
▁gültig
vid
▁Parti
▁movements
▁managing
▁Territori
▁applicant
mie
show
▁verletzt
urteilen
▁soil
▁lists
▁panel
▁abend
▁analog
▁filled
schirm
▁thermal
weist
▁2006.
▁ruhige
▁wahre
58
höhe
▁consulting
▁Nero
AI
▁ES
▁disasters
▁Safe
▁transferred
7%
▁Innenstadt
geschlagen
▁Summe
▁restored
▁Universal
&#
▁reconstruction
▁frische
▁shuttle
messen
▁Gemü
▁Gay
▁Kal
▁solar
▁freedoms
56
і
▁Cat
▁College
▁2007,
▁superb
ändert
▁lib
▁Befehl
Ba
verständnis
▁mehrfach
▁violations
▁losses
leger
▁reagiert
▁Chef
musik
▁Vir
▁Industry
▁Entwickler
liegen
läufig
▁sentence
▁Sudan
▁commit
▁videos
▁nachzu
▁periods
▁Anmeldung
▁concentration
▁enorm
imp
richtig
▁Maus
▁Rechner
▁vis
▁audit
▁Kin
▁bedanken
▁tested
▁reflects
▁courage
▁Hard
nbsp
▁Valencia
▁Marco
▁PS
▁Info
▁Zielen
▁Haft
▁einmalige
▁Anreise
▁Alkohol
▁Protocol
▁erweitern
▁Mauer
▁Read
ford
▁stocks
▁Staff
▁supplied
74
▁Academy
II
▁§
▁verwende
Außenminister
▁generations
uv
uen
▁Sieg
▁cre
▁bedeut
▁timetable
▁Cross
ouverän
under
▁trends
arbeits
▁Benutzung
▁Bon
▁speichern
setzungen
▁anywhere
▁selling
ography
▁Mol
lug
▁Captain
▁Formulierung
▁Gewerkschaft
bio
▁creature
gefertigt
▁Aqua
gio
ZE
▁mittlerwei
▁Geschenk
▁alcohol
kurse
zellen
ove
▁Bezeichnung
▁Lin
▁gefährliche
▁endgültig
uro
▁het
cke
session
▁Slovenia
▁reputation
strahl
▁picturesque
▁kit
▁Serbien
▁learned
bung
▁Americans
▁peak
kenn
▁column
▁refuse
▁Slowak
▁saving
▁Basel
▁Komplex
▁murder
atoren
▁Datum
▁Maschine
▁pull
serie
▁korrigier
▁Erforder
figur
▁Generationen
▁reliability
zweif
ladung
▁freely
▁strengthened
▁advise
schwer
erkunft
▁Richter
▁einzuführen
geschichte
▁everywhere
FF
▁rechten
▁varied
▁Pie
▁Arena
lf
▁restrict
place
▁eliminate
▁Betreuung
ão
▁Kreditkarte
▁fishermen
satzes
▁vergleichbar
▁stuff
tliche
gebäude
▁Bestätigung
▁Has
▁zunehmende
lenk
▁ambition
▁Arbeiter
▁Logo
▁sights
▁differ
▁plain
▁Versand
▁steigen
▁Konstruktion
▁Modernisierung
graben
faktor
▁adult
▁Publikum
▁panoramic
▁compete
ierter
decision
verarbeitung
town
▁è
lla
▁Meister
▁pain
▁Felder
▁sections
▁Small
cle
▁Meinungs
▁Florenz
▁Samstag
standard
▁Tee
▁Finnland
▁Send
▁undertaken
merken
▁Residence
wund
▁partition
▁mirror
▁coordinated
▁ansprechen
▁euros
▁Wolf
▁Möbel
▁Performance
stimmt
schl
örung
▁Branche
▁genauer
personal
▁Schreiben
SS
▁minister
▁rating
▁ensures
▁zeichnet
▁stars
▁san
MB
▁schlimm
▁bri
▁tables
▁Wartung
▁Beobachtung
▁stattfindet
country
▁Erwachsene
kor
▁hill
▁deeply
programms
▁Communication
к
▁Belgian
nia
tlich
▁überwinden
▁trat
stoßen
Commerce
▁pas
▁Order
▁Mechanism
▁SP
л
▁wünsche
DR
Ko
zufügen
▁Leit
suche
größe
▁Minute
änge
▁overlooking
▁Ram
▁engage
▁kernel
versammlung
nik
▁gebrauch
weiten
▁Referenz
ional
ios
▁bearing
▁Rang
okus
▁Appartement
▁fax
▁CHF
▁Ph
▁Fan
▁Key
▁liegende
▁Phänomen
bereichen
▁promise
▁harm
▁Allah
▁Anders
▁Branchen
liches
▁kostenfrei
scher
▁Labour
▁Rent
▁necessarily
▁2006,
ø
▁zugelassen
▁underground
▁derzeitige
beauftragten
vorstehende
BC
▁Ausblick
▁Wikitravel
läne
west
▁interne
lädt
▁Four
eta
▁Mill
verkauf
zuarbeiten
▁Denmark
▁neighbouring
ents
С
▁Komplett
geräumt
▁lived
▁briefly
▁Versorgung
nemark
▁Denken
wächst
▁Ly
▁sal
▁anniversary
▁judgment
▁Would
▁Friendly
▁Jahrzehnte
ural
billig
Wirtschaftskrise
▁Ombudsman
▁Warcraft
▁Überblick
▁checks
▁Bor
▁stunning
▁Genf
▁niederländische
▁vornehmen
▁Bru
▁verständlich
▁Ferienwohnung
▁organisierte
screen
▁technisch
▁wave
`
▁Daniel
▁percentage
▁magazine
▁Saddam
▁determination
ough
▁Mil
inal
▁Profit
▁ME
▁Unterricht
▁Register
▁gedacht
▁Kol
bat
einfach
▁meal
dler
▁tough
euger
binden
▁berechnet
▁23.
▁pod
▁Stimm
standards
▁Vertriebs
▁Objekte
▁cancellation
▁Fra
gesammelt
▁bottle
но
▁honest
▁Grundlagen
▁Nachfolge
▁tele
▁targeted
▁assembly
▁Arbeitgeber
Prozess
▁Lind
kra
▁Sk
kirche
ved
geld
▁convey
Tra
liebt
▁indoor
▁kg
▁ziel
▁Quelle
▁jurisdiction
ziehung
▁fairly
schließt
instrumente
▁hiking
▁usage
ín
▁semi
▁Doha
▁individually
▁ausführlich
New
▁selber
fluss
▁22.
lehnt
▁Emissions
▁Ausbau
flächen
▁30%
▁Fernsehen
▁Bühne
▁Cala
lungen
▁Process
▁reich
▁frühen
▁vari
▁variable
rit
▁smart
▁überlassen
wich
vertreter
mag
▁bauen
▁examination
fort
▁Var
▁arising
▁ni
wölf
▁portugiesische
Car
▁engaged
▁listings
▁Ten
Fünf
Kapazität
▁Persönlichkeit
▁Lateinamerika
▁Vertrieb
▁complement
▁kritische
▁terminal
wünsche
▁egal
▁motorway
irische
clu
▁Gall
▁Vier
MC
▁Olympic
▁gesetzliche
würfe
gnis
▁Filme
▁gu
▁Galerie
dding
ни
▁Niederlanden
erstattung
▁phenomenon
info
tun
which
▁twice
stehende
▁Übernahme
gründen
▁Select
ativ
SD
▁25.
▁Haben
▁Consequently
▁Händler
▁appropriations
▁diplomatic
▁homes
▁sky
▁catalogue
angebote
▁Department
▁Leipzig
stone
▁frisch
▁Hinweise
sinn
▁HIV
generation
▁Million
aka
gaben
▁stabile
▁pot
▁promised
ehren
print
nah
▁2010,
▁row
kamera
▁facts
▁spreche
rät
sko
▁Laser
▁consequence
▁Fac
▁bereitet
▁processed
ont
mic
▁Easy
▁golden
▁ordered
personen
▁factory
5-00
6-0
▁besetzt
nissen
▁Fre
▁klassischen
glas
▁unmittelbarer
elemente
▁Poly
▁untersuchen
▁2-
▁ständige
▁Han
aya
▁normally
▁AL
▁arch
▁angeblich
lex
typ
▁Helsinki
▁Leg
▁Erbe
▁referring
61
geschwindigkeit
▁computers
stellungen
▁communicate
▁Fast
▁occurred
▁Big
dio
▁entering
DC
▁Kategorien
even
▁theme
trägt
lets
▁bestellen
verschmutz
▁Ergänzung
tting
▁presenting
▁reserved
ausgesetzt
ym
▁URL
2008
▁profits
cies
▁spell
KOM
etto
▁Society
täusch
▁prospects
gger
81
96
▁gesichert
▁Tru
▁bonus
main
▁Nikon
▁geschätzt
▁grossen
tschen
94
▁anzubieten
lip
phone
produkt
nahmen
ded
racht
▁Tonnen
messe
ui
stecken
▁innere
LU
bestand
▁müsste
▁medicine
▁feet
br
sprochen
Find
▁Sierra
▁entfern
ROM
▁leichte
gekommen
▁Mädchen
▁layout
▁urgently
reicht
lé
ily
▁Doppelzimmer
▁publish
schrei
Präsenz
▁Yu
▁liable
durchschnittlich
▁Empire
▁printed
▁Verfolg
ressource
einandersetzung
▁frag
gehört
▁convenience
▁deck
beug
▁Osteuropa
anti
fully
lager
▁Notes
▁Saudi
6%
och
▁Betriebssystem
▁newsletter
▁ill
ksamkeit
▁Sur
▁welcomes
städte
▁ended
fügen
▁efficiently
▁Profil
▁pump
▁exploit
▁Köln
Bar
▁Segel
rus
▁damages
▁cancel
power
▁Dir
▁evident
ois
gr
▁verschiedenste
▁Internal
▁hinein
pping
tics
▁discipline
▁erstklassige
▁30.
▁erforderliche
▁Kürz
▁Laden
▁essentially
verlust
Bereich
vollen
▁explanation
▁Demokrat
ruhig
▁Alters
server
▁Französisch
8%
▁gene
▁IS
▁Bewusstsein
gangs
start
▁emerge
▁emotional
▁fault
lohnt
▁virtuelle
ängen
▁Carl
▁Saal
▁Bol
57
▁mobilis
▁Chr
zwang
▁exzellente
▁kilometres
ters
▁succeeded
▁destroy
▁schedule
▁Schicksal
▁GPS
▁stages
▁holds
schmerz
speed
weiger
▁poly
α
▁aufbauen
dramatisch
gehende
▁Pap
▁highlights
▁winning
▁oldest
wä
▁mögen
pha
▁wirken
▁strictly
▁formats
▁Lastly
▁Classic
ständig
▁gek
▁plug
▁Vorgehensweise
▁Zauber
▁operator
▁verlie
nov
▁dollar
▁highlighted
-3
▁undertake
apazitäten
▁mouse
▁Dresden
aussch
▁Brok
▁Uni
odo
▁lasting
▁gew
▁Veranstaltungs
▁sample
chung
▁immense
feindlich
[
▁gradually
händler
▁causing
▁beinhalten
wählen
▁Jerusalem
▁Argumente
col
bevölkerung
lieferung
ährung
▁Program
▁Representative
mir
yard
▁Aktual
▁habit
▁tracks
▁coherent
▁depth
▁threats
▁Frühjahr
▁scientists
kunft
▁acquired
▁freut
▁ausreichende
▁Jesus
▁Anh
▁Jugendlichen
▁intends
▁vereinbar
▁Linien
gebühr
▁Eröffnung
TR
▁beliebte
▁sophisticated
▁brother
▁Rhein
▁Theorie
vie
▁Borg
gau
▁Por
dri
phe
verhältnisse
stieg
▁Bosnia
▁resulted
▁Kino
▁admit
MT
▁Journalisten
wände
▁ease
▁combines
EP
▁Nachmittag
▁incorporated
च
▁erzeug
▁Är
▁Product
größer
▁throw
deration
kundig
▁Ablauf
▁Mond
analyse
stehend
▁gewöhnlich
▁Auftrags
widmet
▁Explorer
eizige
▁künstlerische
▁conventional
▁widespread
▁Ansprüche
zuheben
▁floors
▁Abteilung
4%
rig
betracht
▁exceed
▁argue
▁troops
▁talent
▁peoples
TION
treifen
▁Beurteilung
▁virtually
▁erworben
▁Sant
anwendung
▁Spend
▁revenue
tron
▁aggressive
▁Children
▁deutliche
▁46
▁mat
▁Vertrages
izer
chwellen
pet
▁wunderbare
▁bestand
▁appell
Stunden
trans
▁producer
ways
▁begründet
det
▁PA
zeitig
▁engines
▁Mehrwertsteuer
Es
▁deserve
▁cultures
▁trace
▁modify
▁achievement
▁declare
▁Further
▁Integr
zentral
▁Cooperation
▁circle
▁Cho
sim
▁gelangt
ę
▁Adria
▁Fassung
kämpft
▁DIE
▁Using
▁beliebige
▁stem
Spiel
▁spiegel
82
▁ratio
lian
gram
▁adjust
▁Import
▁Haiti
html
▁prisoners
▁beliebt
▁ausgestattete
1⁄4
▁kümmern
▁Vermögens
ungsvoll
▁Fläche
▁coordinate
▁calendar
sum
▁shot
▁Verkehrsmittel
iko
▁Trend
▁pillar
▁bevorzugt
werke
▁Ji
▁Airlines
versicherung
▁Desktop
▁SQL
▁ges
fre
▁enthalt
▁grammati
▁Kunststoff
schreiten
▁großartige
▁occupation
▁encouraged
▁attached
▁liquid
▁Tur
▁Danish
▁yes
Tag
IR
▁Versicherungs
▁2000,
sorg
▁Mechanismen
▁File
▁aviation
▁thorough
▁VIP
▁в
▁Hunger
▁seats
nstanz
▁Cookies
▁Früh
▁Bier
▁bathrooms
▁attraktive
▁steigern
▁optimier
zweig
▁Source
etten
city
gerichtet
▁Bevor
▁Joint
▁announce
group
▁genaue
linge
▁candidates
▁pack
52
utter
PE
phon
▁Reihen
akte
▁carte
▁Authority
▁Ostsee
▁treatments
▁participating
▁eindeutige
▁Cou
▁saubere
▁environmentally
orientierte
▁iPod
▁68
market
ency
zeichnen
▁nah
▁beeinflussen
▁surprised
zulassen
▁detect
▁endeavour
▁Truppen
asien
▁begins
▁entdeck
▁observe
▁verhe
▁arrest
▁alongside
▁prominent
▁180
▁agents
▁Treaties
ödi
trat
▁Long
▁restricted
aja
▁specialists
ça
▁Constitutional
▁armed
Ta
UL
Linux
▁meals
▁zuverlässig
▁relates
▁laufend
ode
▁premium
▁52
87
▁Venedig
Ho
▁serving
▁chairman
OC
▁observed
▁twin
schreck
nutzung
▁vierte
esse
▁Zuverlässigkeit
▁Spezialist
owjet
▁Cuba
▁Greens
eutung
▁Rein
ime
PM
gesagt
world
▁convention
▁Albert
▁Tools
▁KDE
▁Search
äfen
▁Obst
LAF
▁vertraut
▁Kennzeichnung
wendet
▁Luftfahrt
ière
ret
It
lös
▁Wohnzimmer
▁Gebühren
▁Marine
▁eurozone
▁bug
▁Come
▁reisen
▁fat
▁victory
▁Oberfläche
▁Ros
▁dauerhafte
verhalten
Ra
▁Lithuania
therapie
▁Syri
▁aufgestellt
▁Language
▁accommodate
▁utmost
kontroll
rott
▁harmful
▁baby
▁IMF
▁Instruments
▁Gen
jan
skosten
▁teachers
▁Tarif
ela
▁Adam
4-0
▁prospect
▁convergence
▁Mass
▁Class
Gruppe
▁Düsseldorf
▁Medikamente
▁ehe
schädigt
mis
fle
aga
▁Nokia
▁Del
FO
▁hidden
▁Eti
ielle
▁spite
▁Gewähr
▁stories
▁Immer
zzo
▁affects
▁Edinburgh
▁Track
OP
▁47
▁assurance
▁müssten
▁einstimmig
▁Steiger
▁dialog
▁purely
verbindung
pm
Gu
▁stelle
▁contextual
enberg
Wi
▁fly
zia
software
horn
dateien
▁frequent
▁niedrige
▁Berechnung
▁capabilities
svertrag
▁Plenar
sie
asiatische
ürzt
▁Spezialitäten
62
▁marine
▁electrical
pakt
▁breath
▁Florence
▁subscribe
▁Slovakia
▁versehen
lev
aging
Team
▁associations
gewachsen
Bu
Ru
äu
▁Ungleichheit
▁Appartements
ivity
▁specialized
gute
79
▁empty
▁Change
▁Spitze
TEN
▁Philosophie
▁pin
▁await
▁85
▁editor
▁1950
▁produces
insel
▁Suites
▁records
▁Migration
fra
▁SO
halts
▁adding
▁Ford
▁vermittelt
▁cl
▁integral
kraftwerk
BS
▁Erd
Th
▁Konzentration
▁sweet
zession
▁Auflösung
▁einst
hafen
formation
▁41
reihe
esten
nfalls
▁expense
leihen
▁Bewohner
▁Wur
▁Ufer
alle
DP
rian
▁passion
datum
▁Level
▁Blair
▁str
rats
▁gehe
▁rid
▁raising
▁inspired
beruf
▁fossil
▁tre
hebung
ländische
▁graphics
▁secondly
▁Aufzug
EE
▁Keine
▁inadequate
▁übermittelt
▁mere
▁Force
▁Bug
▁Mad
▁accidents
▁Tanz
▁©
▁Vin
▁Tsche
▁splendid
▁seemed
▁Sho
▁Archiv
acht
Smoking
lib
▁Burma
Enterprise
▁Referendum
banken
▁estimated
utigen
▁crises
oriented
▁Palette
▁blocks
Finde
▁grown
wit
▁Jazz
▁vorzunehmen
▁Terms
▁Durchsetzung
▁split
▁stayed
ination
▁fein
▁pet
aba
▁Kara
vio
▁passing
▁Copyright
▁Acht
▁thumbnail
▁Empfänger
produkten
wachsen
▁Lokal
▁quotas
ritt
▁realisier
▁Three
▁Franz
sc
assi
▁dynamische
kali
▁Jedo
▁vorliegen
nannt
flüssig
▁medieval
long
cit
▁europa
Shop
▁ratifi
▁unglaublich
ground
▁objektiv
cover
▁implications
б
▁Nieder
▁initially
prob
scribe
▁(1)
saison
EX
ieß
▁längst
worten
▁Lä
▁Legislativ
▁Quark
▁Schulz
▁oppose
wirkt
▁abgegeben
▁Pfeil
▁hills
0,00
gedeckt
53
▁describe
inderung
▁beantwortet
▁seeks
▁maximale
fälsch
▁CEO
▁angemessenen
1.
▁hol
▁Unterzeichn
▁Lieferanten
▁negotiation
▁Drive
▁adds
▁designs
▁Kuba
▁Vertretung
wal
merkt
▁Seminar
inner
▁Subject
▁undermine
pla
gin
▁violation
▁mineral
▁wear
▁Zwar
▁Events
▁Vers
▁Erfolge
▁Kenntnisse
▁extending
stal
lebt
tric
-10
▁assigned
▁Annehmlichkeit
▁advocate
tür
▁Cro
lis
illo
interesse
83
▁Siemens
mutlich
▁Runde
älder
▁neo
spräsidenten
▁Autos
▁Verh
▁classical
▁Gru
▁marks
tland
kleidung
reize
▁flu
kator
▁socio
gate
ë
▁plötzlich
fil
▁essen
▁sufficiently
▁östlich
▁busy
▁profession
RM
▁episode
▁kennt
▁angeschlossen
▁scenario
▁1.5
▁kleinere
63
▁ansehen
▁zeitlich
nennung
RT
▁Besonderheit
▁Engineering
▁Folgende
▁supplement
▁Vorstellungen
▁promises
quelle
▁12.00
isi
etti
▁Kommentare
ßte
▁wooden
84
▁Volke
▁Industrial
hour
▁infringement
▁Urheberrecht
▁array
▁XML
▁crystal
Ri
▁logic
script
bewegung
▁entstand
iers
▁verpflichte
ej
▁Emp
▁Mah
▁49
nock
▁flows
institutionelle
einheit
▁Chairman
▁pose
▁Index
verbot
▁academic
▁airlines
▁Tower
▁moderate
▁versteht
▁Firefox
▁sammeln
komplex
▁airports
▁Übersicht
“)
Technologie
▁servers
bietet
▁Premium
spar
▁ruling
kling
▁developers
▁schriftliche
cept
kriteri
bestände
▁Zerstörung
▁honor
▁Map
▁tournament
▁350
laut
▁breach
▁Fremd
▁reflection
künfte
lesen
▁ratification
▁hinzugefügt
nal
▁biologische
▁strike
bilder
▁informal
Energieeffizien
▁studied
▁Administration
economic
▁specify
▁behavior
▁dä
▁Gewiss
▁Night
▁Lesen
▁Run
▁blame
ounce
▁Montage
lässt
hängt
▁Dynamik
▁Siedlung
▁navigation
atory
▁Freu
▁NO
OK
some
▁Qualifikation
ark
▁Krebs
▁negativ
opfer
▁Arbeitszeit
▁Roll
starke
▁retail
▁desktop
▁formation
izi
▁strikt
sgebiet
▁guided
pflege
änderungen
▁sat
▁Flugh
▁Bonn
▁collapse
▁Nation
WA
▁basierend
▁beseitigen
▁meets
▁broken
zeile
▁Sav
▁130
▁Zulassung
▁shortly
▁Fehl
▁Love
▁ignore
▁repeated
wertung
▁geblieben
iellen
▁characteristic
▁acquisition
▁incorporate
▁(4
▁colors
▁believed
▁Trenn
CT
▁fließ
▁GAP
person
▁Lan
rü
law
▁unilateral
▁amended
char
▁Verb
Benutzer
▁Age
▁Versch
mil
▁choices
▁Employment
▁bewerten
▁Dialogs
ehmen
hop
▁edited
▁Montenegro
▁Tendenz
▁Samsung
itis
▁ausführ
ère
▁technique
-5
▁Nizza
▁Chat
übertrag
▁approaches
▁rechtfertig
▁unusual
▁Terminal
zutreten
▁Ehre
nica
▁ingredients
reisende
klären
800
landes
ährungs
▁Geschlechter
▁Erwerb
▁Beschäftig
▁Fisheries
▁Literatur
▁Sy
cil
▁edit
▁Wednesday
▁Verhältnisse
▁RI
▁tab
▁girls
▁Bro
gal
▁verarbeitet
▁governing
▁gemein
▁Südafrika
▁Taste
ehlt
▁Gewä
▁whereby
▁poker
▁Torre
rac
including
zid
▁Anträge
▁League
▁schritt
▁steam
▁24.
zykl
schuld
▁Riviera
▁bought
▁Dörf
▁ter
▁Oper
▁asset
▁geniessen
▁sin
▁Werden
transfer
alen
nutzt
afrika
GP
jer
▁definieren
Konjunktur
▁enforcement
▁Arbeitsgruppe
▁Cur
▁strange
▁booked
▁Vereinigung
EF
▁remarkable
▁satisfactory
parlamentarische
stru
600
▁Kam
▁Section
▁textile
▁chief
▁schemes
max
rem
spieler
▁klassische
käufe
▁heads
▁Module
Card
tory
sb
ifying
ail
ians
lassung
flanz
▁verstehe
▁Szene
▁reporting
nsgesamt
ध
▁kalt
▁dieselbe
▁rubber
ovo
▁Jewish
würdige
▁addressing
▁Fal
▁Weine
iterentwicklung
merkenswert
▁Heads
▁Listings
▁erheben
▁Australien
▁Anzeige
▁Anregung
bag
▁refused
▁exhibit
wegt
▁Eigentums
▁Konver
▁Sei
▁maybe
▁29.
grammatically
▁generous
▁Bilanz
führende
▁scheduled
▁ultimate
Ich
▁Erkenntnis
rufe
▁Wu
▁09
tima
▁Rettung
▁Hot
▁joining
ziele
▁Kit
ament
▁Traditionen
▁Char
phase
sichtspunkt
▁hi
onvent
▁logical
posi
▁RSS
▁staying
▁neighbours
▁28.
▁normale
▁Smith
halte
▁Spaziergang
▁Variante
▁leer
stor
▁accounting
▁consult
▁tram
▁sheet
▁Dia
▁Pfa
▁wife
▁Sekunden
▁poorest
gültig
▁fe
▁certification
▁operates
▁Entdecke
▁Café
▁employed
▁Monti
▁stores
bla
rest
▁leistet
Format
funden
▁cinema
flotte
essel
äum
▁Verfassungs
▁Salz
▁Gil
leid
tet
▁widme
▁irgendwelche
▁completion
ador
▁absorb
))
▁Gate
uli
▁Zer
steuern
egg
▁vermi
▁Direct
▁medicines
▁Drin
ude
▁tragic
fix
hag
erfolg
mischen
anbieter
wortet
sec
▁urgency
▁Wand
richtungen
▁distinction
▁Bridge
swahl
▁umfassen
AX
weil
▁constitutes
▁legitimacy
einstellung
▁contextually
▁Applikation
▁Renn
häng
▁Minderheit
hilf
▁zulässig
▁veröffentlichen
tina
▁sonn
basierte
cient
▁Cab
▁Behinderung
▁eigentliche
▁2015
▁hydro
▁Terrorist
▁cat
▁compulsory
▁considers
▁Weiterbildung
▁herbei
▁2004,
fahrzeuge
▁schließt
▁venue
▁Kre
▁blau
▁1988
oy
▁Fed
SH
urg
füg
▁blend
technologien
▁incentives
▁Distribution
▁antike
▁abandon
▁attach
▁Intel
▁Kernel
▁Reparatur
üt
▁checked
dig
▁Ausb
▁Contact
▁External
▁lieb
▁preferred
▁translated
core
/96
▁yield
▁poll
▁Hor
LD
▁bomb
ütter
▁Kein
senden
jet
▁26.
öse
ubventionen
▁Sel
▁flood
▁geräumige
GE
▁repeatedly
▁kostenfreie
▁islam
▁calculation
dict
▁Petitions
▁tro
Un
jährig
▁Garda
aster
langen
▁überrascht
▁Indonesia
▁conciliation
▁Zugangs
iano
▁fascinating
klaus
▁drag
Drittel
räng
cial
▁enjoying
sphase
SM
-8
now
▁reiterate
▁moreover
▁AD
▁verweis
▁Kap
▁underline
▁Fuss
▁gear
▁Spiegel
▁Price
▁boasts
▁Gener
▁Konkurren
BO
kit
▁dauerhaft
lift
prüfung
▁Corporation
▁Village
schloss
Dateien
siehe
▁LCD
Man
▁residential
bol
▁relationships
▁begun
▁blow
▁underlying
▁scan
▁(18
litz
hed
verteilung
mente
sperr
▁clock
▁gelesen
▁Unterhaltung
▁guard
▁Verzeichnis
▁zustande
▁laufende
▁ordnungsgemäß
▁unab
▁conferences
▁är
▁Menschheit
▁NEW
▁institute
Ad
messung
▁Labor
▁operative
▁Ereignis
▁stattgefunden
▁geltende
roh
lash
▁bearbeiten
everal
hood
▁insert
kampagne
▁Galileo
▁pace
▁forth
▁Milan
worte
schneiden
▁conversion
zite
EA
▁Gibt
▁Victoria
taste
ferenz
Design
▁endet
ipfel
emp
▁actors
▁chi
▁Paar
▁gesch
andidat
▁kill
▁dramatic
▁Bosni
dämm
palette
▁reverse
▁Gene
▁gegangen
▁Pf
mond
äußer
▁coach
PI
▁Solana
▁coastal
msten
▁Farm
▁Klang
▁touristische
▁Patten
WE
▁pra
▁grave
cap
▁Öko
▁Discover
frisch
▁debating
▁110
▁mixed
▁exposed
▁Anonymous
▁tö
▁problemlos
Richtlinie
▁mediterrane
▁Empfang
▁Eu
▁transaction
▁Moscow
▁freight
▁tip
▁favourable
welle
▁Bedienung
▁Besitzer
dol
▁Partnership
▁Schätz
▁teuer
lecommunications
▁Flotte
erwiesen
▁fassen
okko
zahlungen
▁bas
kul
▁süd
▁Abenteuer
pal
▁Bin
▁LED
gus
▁bread
▁owned
▁threshold
▁Francisco
▁FOR
▁strip
▁gelegene
▁foremost
▁Niederlande
amerika
▁Excel
SER
▁whi
▁Spielen
▁neighbourhood
Cha
▁Corn
▁sorry
zin
▁Begründung
sson
▁Gute
▁sovereign
ältigung
▁ethical
▁Together
ergebnis
iki
▁hire
▁erkunden
Paket
▁autumn
▁Werkzeuge
▁Eingabe
▁geo
▁Times
wissen
▁deserves
▁circuit
non
otto
▁Left
▁SPA
▁Ministry
▁fell
▁willingness
▁guaranteeing
▁flash
▁unnecessary
▁foundations
▁Einfach
▁spare
aux
dreh
▁erfasst
▁strukturelle
▁Tests
▁Ul
▁bal
▁öffnet
▁Einschätzung
▁51
▁subsequently
▁favourite
sbürger
gerecht
▁hence
▁Teams
▁hinder
▁widersp
▁unvergessliche
▁aside
▁startet
▁allocation
▁burn
▁journalists
cro
▁erleichtert
tive
▁Km
tauchen
▁vollen
▁campaigns
▁apparent
▁schauen
▁Anwendungs
▁Final
▁formula
▁Stabilis
pli
flu
▁Jugendliche
▁productive
▁Pacific
▁hochwertigen
▁economically
▁travellers
leu
fügt
▁Einzeln
▁Bildern
▁herausragend
util
vas
ash
▁bewahren
▁Queen
▁secondary
rechtsverletzung
▁expanded
▁heim
grün
▁Tö
▁Soldaten
▁solide
aushalts
turn
gest
▁Immun
lation
▁bigger
▁Agenturen
▁speeches
Na
kollektiv
cca
ange
▁Reisende
face
▁Sex
nova
▁jo
▁boats
▁listening
idi
Expert
▁foster
/1
vat
▁sitzen
kert
verband
▁Grafik
tone
▁gestartet
▁DC
HR
basis
▁Vorbehalt
▁Sri
▁featuring
▁Deposit
▁favorite
einzel
▁terrible
anische
entwickelt
▁PR
▁intervene
▁broadcast
stritten
▁Ashton
▁Handlungs
▁Anna
ckt
▁recover
х
▁false
▁refund
▁Ausbildungs
geschlossen
▁tausend
▁verbleib
lernen
▁Finanzierungs
▁nachfolgend
▁gerechtfertigt
▁charakteris
modern
▁harbour
▁Ren
▁torture
mittelalterliche
▁Finger
▁inspirier
▁contest
▁Sports
▁Karriere
▁Holland
reiz
mittag
smal
▁operated
TU
▁besch
▁attraktiv
▁lebendig
▁mine
▁tap
▁Boutique
▁arranged
strecken
▁VER
ießen
▁erstreckt
▁gebildet
▁Storage
▁mechanical
lement
rmaßen
▁Wider
Po
▁dress
▁hört
asi
▁Bot
stag
▁Friedrich
aud
▁Uns
stärke
▁dreh
▁extract
tract
▁OECD
▁lively
▁Interview
▁übrig
life
▁faire
▁Verpackung
▁Tourist
▁removal
kop
▁dual
▁como
abend
eau
▁nenn
TT
▁Kürze
▁representing
▁Direktor
▁Ham
▁eingerichtete
▁gi
▁insufficient
▁Figur
swerte
ünden
lb
omi
▁Relax
▁instantly
gast
▁devoted
stücke
lett
▁reichhaltige
brauch
track
ergestellt
▁(10
▁slopes
▁Ursache
▁Kompetenzen
ierend
▁Chief
fassen
vari
▁schwarz
temperatur
▁openness
▁erlassen
gier
▁Renaissance
▁begleiten
▁reine
listen
▁vocational
schlüssel
▁erteilen
▁Universitäten
tags
dscha
▁Geo
▁organ
▁rasche
pic
▁warrant
tagung
▁bewu
▁bid
▁realize
geb
▁Morocco
ecken
▁Off
▁CH
fürcht
ohne
▁begeistert
▁langer
▁salt
ache
ICE
▁inspection
stream
rack
▁Schiffs
▁Experience
▁2005.
lichkeiten
г
▁budgets
▁considerations
▁arrange
▁gemütlich
▁sad
▁2004.
▁Double
tia
▁DO
▁Liege
▁simultaneously
▁halbe
▁measurement
▁LA
▁überwiegend
▁72
▁managers
hat
▁Malaysia
▁diving
▁maßgeblich
▁transit
nforderungen
▁Prize
▁Nobel
▁Ernst
▁Alps
▁sparen
Jahr
▁Heim
▁celebrate
▁Geh
▁modernst
papier
▁Spanisch
▁Gerichts
vision
▁unzählige
▁expenses
Ju
ums
ched
▁GUE
findung
▁bedienen
vet
▁quest
▁purchased
liegende
▁evolution
▁encounter
Pla
▁jointly
danken
reitet
▁Überleben
▁genehmigt
▁craft
▁patch
▁hor
ürt
terinstitutional
▁(5
▁amending
▁Tief
sparung
▁geschickt
/3
▁ownership
cus
leiste
Christian
▁Surf
möglich
▁clarity
▁könne
▁slide
▁Spektrum
▁Hussein
zza
▁upload
▁Ident
▁fewer
▁falling
▁Gau
NGL
▁complaints
▁accordingly
einträchtig
path
▁08
▁Hell
möglichkeit
menge
öcke
▁Vert
Hour
mbre
alisierung
ष
▁Navigation
▁tragedy
▁Logistik
▁Korrektur
▁54
fl
fal
▁Lau
EST
Funktion
▁Beobachter
▁Venezuela
▁accessories
▁Behörde
AB
ifikation
▁transformation
politisch
ished
▁Verkäufer
▁excursions
bul
▁consist
zeugen
▁dog
FT
▁Past
bia
▁markier
iser
▁Release
▁alliance
▁140
IO
rock
datei
ESS
▁AN
ativen
▁2003,
familie
ober
▁nützliche
information
▁schlicht
sitze
lief
NG
▁Job
▁Entdeckung
ancy
▁Wichtigkeit
kett
▁Aufenthalts
nesien
▁fifth
▁27.
▁postal
▁ALDE
▁Wunder
sichert
▁sharp
▁intentions
▁artificial
rated
▁importantly
stätten
▁cheese
▁archive
▁favor
▁authentic
host
▁sunny
ives
mini
▁clicking
▁Med
▁Gy
rechten
▁Shuttle
▁Missbrauch
▁relief
ffnet
HS
▁1986
GI
▁kreative
▁mas
take
ände
▁Series
▁Pic
▁cra
▁justify
bie
zität
▁senior
▁spectrum
▁Country
▁Third
▁zerstör
▁sucht
▁composed
tribu
gründe
▁knew
▁Aufhebung
▁references
▁inhaltlich
dica
trauen
onia
▁suggests
Go
▁Yacht
▁certified
▁entspannt
▁frühere
▁AIDS
▁Dra
from
▁Rubrik
itor
▁Hör
▁Kim
▁Sign
funktionen
▁Autonomie
▁vary
▁dive
CR
▁intense
▁automatische
▁Lehre
sab
tagen
▁arrangement
▁Stadtteil
scheitert
ii
‘
ј
flo
▁coll
▁Kron
▁Sort
▁revised
▁verschieden
▁chose
▁deadline
▁temp
bücher
▁afraid
heugen
behält
lop
CM
▁desto
▁experiment
те
irate
▁entre
▁ideally
▁whatsoever
uft
▁Häfen
ographic
ost
wider
▁lebend
braucht
▁Mehrwert
▁Funktionalität
standing
▁Zahn
▁ökonomische
▁Rats
restaurant
▁ordentlich
▁etabliert
▁sake
▁affecting
▁Growth
garische
objekt
schläg
▁Bull
¶
aki
▁vergeben
▁COM
hut
▁Prince
▁pattern
kk
▁dec
aro
▁CON
ografische
▁expressly
▁greif
▁Mö
▁Welthandels
▁Grab
▁erkennt
▁continuously
▁margin
zt
▁Bureau
▁anhaltende
▁loans
üssen
▁rette
▁eco
▁Word
kunde
▁IBM
▁Commissioners
schuh
eitung
stunden
▁Zurich
▁Mittwoch
vermögen
akis
gerechte
teilnehmer
...)
▁harte
Im
hancengleichheit
▁doctor
▁quantitative
ivo
OT
▁Versuche
▁Bou
▁observation
AV
थ
▁stopped
fahr
ching
▁Auflage
▁delete
▁basically
▁fin
▁promoted
▁Stoff
▁Lern
▁bestellt
▁1930
▁vorliegt
▁forgotten
äck
Su
▁Elite
atic
▁electoral
you
DO
tling
thumb
graph
▁Futter
LC
▁interactive
▁1987
▁и
▁notes
PR
ε
▁orientation
▁Berater
▁innovativen
▁violent
▁profound
▁greenhouse
El
arme
▁Plätze
▁brain
▁withdrawal
eira
▁strategisch
fla
▁Erstell
▁hast
▁OK
▁begegnen
▁dauer
tica
▁(2)
tine
para
betriebe
▁davor
▁Eigentümer
▁manufactured
home
▁recession
▁Herrschaft
Internet
schweigen
▁verabschieden
SO
▁französisch
▁eingetragen
▁logisch
▁damalige
▁buses
betrag
▁stimulate
▁Mountain
▁Halle
bekannt
▁beeindruckende
▁Finnish
fertig
sidium
р
▁Blumen
▁letters
▁unity
▁unterbrochen
erlangen
toria
ssern
▁smoke
▁replacement
▁certificate
▁specially
▁literature
▁Thermal
wein
▁Arbeitslosen
soft
▁Bavaria
▁regulate
▁nobody
▁revi
▁losing
mechanism
▁Ferienwohnungen
▁Mid
▁examined
▁Soft
▁Otherwise
euche
▁99
digen
▁insight
konto
▁1985
▁bür
Fa
gründet
▁Studium
▁renewed
istisch
▁riding
▁destinations
▁glück
chter
▁painting
▁Peru
▁printer
pers
▁faces
▁bearbeitet
▁Stern
▁invitation
▁Statut
äder
▁verbesserte
▁newspaper
▁Tampere
▁fiel
▁tube
▁Mix
▁abhäng
▁seconds
▁HP
▁segment
begriff
elf
▁Turnier
▁frequency
pektakul
rik
achten
▁SDL
weile
▁multimedia
fällt
▁Festplatte
▁affordable
▁broader
institution
party
ruft
▁announcement
▁evaluate
archiv
▁interaction
▁zero
▁romantische
▁Defence
▁beef
▁verursachen
▁pools
betten
▁integrity
▁marginal
liberal
digung
▁pharmaceutical
verhand
▁Davo
▁Hy
▁Bestell
ales
webe
▁od
▁freiwillig
folgt
strukturen
arian
▁Southern
▁armen
▁duration
▁Verstärk
▁council
▁quantity
weiß
eria
▁focuses
▁transitional
Net
▁tape
▁Youth
▁healthcare
▁monuments
▁buying
▁übermitteln
▁residents
▁flexibel
▁sequence
BER
▁Charme
fr
▁Iraqi
▁relaxed
▁gewählte
▁accuracy
▁Entschädigung
chemi
▁granting
▁Schott
▁Funk
amente
deutet
▁leiten
▁California
schul
▁driven
deutlich
▁Application
▁vorhandene
bet
▁zuverlässige
▁Verlängerung
▁Beschränkungen
▁Flüge
▁capture
▁Chemi
stufen
▁Einnahmen
▁CAN
aktiv
▁Logik
▁Lita
ketten
▁boutique
▁Gegenstände
▁energ
▁Sim
▁1,5
▁DJ
inisterpräsident
▁Sto
▁believes
▁integrieren
▁pos
▁Spi
zugreifen
▁zweck
▁Ausw
▁Libya
▁Tempo
bilanz
▁Brot
9%
3-
schenkt
▁Zustell
▁Electronic
duct
abschied
▁römische
▁verwaltet
▁Mund
stabil
▁territories
tat
gehörigen
/98
▁architectural
gebrochen
▁beeinflusst
▁160
▁Bewerb
▁acquire
▁Palestinians
▁opens
▁Aero
kammer
▁Spal
▁Beta
Serie
▁Profi
▁exakt
▁Kooperations
ç
▁soldiers
euerung
aktionen
▁Tarifa
▁Danke
▁Andreas
rückt
alp
reicher
üchter
dimensional
▁Nationalpark
▁geteilt
tausende
▁Pferde
3%
▁suited
open
ausstattung
komm
▁Buffet
▁hesitate
▁Gewinne
▁Stu
▁Zurück
▁sailing
▁stressed
shi
▁lob
▁garage
typen
TP
▁Umstände
▁Ingenieur
▁obligator
▁moments
▁Ausgangs
▁Arzt
▁Capital
▁contractual
▁Cash
stro
DF
▁beliebig
▁Moskau
▁1945
echt
bewahr
▁Merkmale
▁zuständige
▁exklusiv
▁Hitler
▁controller
sar
▁40%
▁mouth
lent
iana
▁Vis
▁authors
▁Freedom
web
▁Fla
lly
▁Demonstration
▁Library
▁silence
▁decor
apazität
▁Bestellungen
▁Iranian
▁Taliban
▁53
raub
▁Cy
▁Rural
verbindungen
æ
▁automotive
▁cave
▁Orten
▁verzichten
DEN
anne
wolle
▁EIB
▁berichten
tiert
▁researchers
▁Zeitschrift
DVD
▁Kloster
▁Jack
winkel
▁halt
▁sizes
▁Ordn
▁Bike
▁Kommun
▁therapy
▁civilian
zusagen
plo
▁beneficial
▁solo
ре
▁Cologne
▁Ausflug
▁Tim
▁spiritual
▁modular
▁gravier
▁whenever
ambi
mechanismen
▁Zo
gno
▁fern
▁History
TEC
▁enjoys
▁prestigious
cell
▁Indo
▁belongs
▁Klassen
▁reinforce
▁Kohl
▁conviction
plattform
▁explicitly
▁Wireless
Gipfel
▁25%
gelassen
▁magic
▁cookies
▁56
▁sail
cin
▁resist
▁airline
partnern
▁Peace
▁Qual
▁Demo
empfi
▁Fire
▁behinderten
▁Picard
▁Close
TNG
▁Wikicars
▁lecture
▁witness
will
▁Ocean
▁stretch
▁negotiate
▁ocean
▁Vorre
▁Label
▁adjustment
▁identification
gemacht
regulierung
schenken
▁Strasse
▁entail
▁pressing
▁judge
▁Trop
▁tank
▁gehabt
▁80%
udi
baum
uc
▁Fas
▁eröffnen
▁cancelled
▁begangen
▁acid
arbeiter
▁compare
▁steigt
▁regulated
▁License
▁celebration
gerechnet
uz
ruhigen
kredit
▁5%
▁wachsen
sorganisationen
BI
▁Governance
▁Beck
rine
ART
▁ausführliche
▁Ras
iel
ministerium
▁publishing
▁constructed
▁mer
▁coal
gehören
UT
▁Größen
vereinbarung
▁Systemen
Politik
▁surplus
schätzt
▁buyer
▁KG
ppel
FS
▁breiter
▁stabilis
▁vorherige
▁Banan
▁surveillance
wohnt
▁Gewinner
▁opera
▁ear
▁gebunden
holung
▁Wor
▁$1
▁Istanbul
llo
▁laser
▁quo
▁drastisch
▁trop
▁Probe
▁funktionierende
▁domin
besuch
ι
▁merit
▁einheimische
▁charter
deck
▁verw
▁Flüchtlings
▁Macedonia
▁necessity
▁officially
neben
verträge
risiko
▁Gelände
▁transfers
▁beat
▁Ärzte
▁Rob
▁revealed
▁palace
▁noon
▁machinery
▁guitar
▁focusing
▁dynamisch
▁gefasst
▁Nordic
nehmer
▁Rod
ischem
ektar
länge
vermeid
▁Unfall
You
▁Shopping
far
▁pensions
ados
ächer
being
FL
▁uncertainty
▁Begleit
VI
▁distinguish
▁predict
schad
▁Neuer
▁transnational
Code
▁plugin
akzeptabel
▁jump
▁dimensions
▁crowd
▁Gross
▁spielte
▁blockier
lagert
▁verschaffen
▁proximity
glich
ст
▁Jugo
/4
▁achievements
größte
▁verwiesen
more
▁EURO
▁bürgerliche
rische
bezogene
▁delays
▁konfigurier
▁bicycle
chwung
▁Beijing
▁Madeira
▁cease
nfektion
iller
▁precious
vit
▁Chip
▁Heiligen
IVE
ographie
live
▁presidential
▁alternatives
▁moderner
leitet
▁Kanal
▁Rennen
iell
▁hospital
▁dealer
▁winner
mul
▁Aluminium
praxis
wichtig
prozesse
▁suspended
▁Monopol
▁Minibar
▁daughter
▁prevented
▁koh
▁umso
▁leb
-7
▁sandy
▁donation
lum
▁eingeladen
▁employers
▁körperlich
▁rechnen
▁Yugoslavia
etta
320
▁systematisch
▁Stefan
▁tolle
▁negotiated
speis
EK
fand
▁Planet
▁José
”)
▁Schauspieler
▁folg
▁benannt
▁Weis
hai
▁separat
LS
▁verfass
▁bou
liegt
▁DER
▁Individual
▁Division
▁verschwinde
▁threatened
▁trained
▁Meta
▁praise
▁shut
▁Fakten
Dollar
▁preserved
▁basieren
▁derart
▁zwanzig
▁eintreten
▁Ecke
▁pine
ote
▁seed
▁worrying
▁aussehen
▁Communist
▁seal
▁prompt
wandelt
ome
++
sprogramme
ktor
▁Lam
▁stance
Ebene
▁attended
ausbildung
▁Brit
gewaltig
▁Rauch
Gottes
▁Until
▁Ausnahmen
▁Brücke
spalt
rès
▁sterben
ied
schließend
▁indicators
viv
▁complain
▁installations
▁fra
▁paths
▁Eintrag
▁Rohstoff
▁exposure
▁fehlen
spflicht
chel
▁SMS
▁Estonia
▁emerged
▁sofa
etz
gänz
▁doppelt
▁Adriatic
▁preparations
abil
▁Tunisia
▁hero
▁Bour
Ausübung
▁rose
status
▁Qu
▁taxpayers
lik
fahrzeug
▁schwach
häusern
muster
▁Scotland
▁Anbindung
fehler
▁1:
ines
reichende
▁treiben
▁venture
▁Inhaber
▁wise
▁Angabe
krank
ş
conf
▁deleg
▁wünscht
etch
ecke
seitige
▁District
▁conservation
▁fer
▁Matt
▁Rose
ва
word
▁doubts
ures
▁Credit
▁invoice
▁unknown
itu
nos
waren
▁ratified
▁strive
▁smoking
ages
fect
fit
▁concerts
samt
ль
▁Bergen
willig
fluß
duction
lea
▁cocktail
▁template
▁heutzutage
ohn
▁Genuss
▁fragt
governmental
▁exhibitions
▁Handwerk
Sie
samen
/99
All
▁comprises
krat
▁Organization
harr
üh
▁PO
rechn
▁Fans
▁convince
▁BO
ila
▁schl
▁Griff
▁Alpha
▁construct
▁wheel
▁certainty
▁BA
▁silver
hüll
▁Deutschlands
ässe
▁parks
▁purchasing
▁Vertrauens
▁feedback
▁citizenship
▁Solutions
route
▁claimed
▁Unge
▁roots
▁rear
▁löschen
▁gate
▁debated
▁IM
▁photographs
▁Forscher
▁besonderes
▁bat
bestimmung
▁Zimbabwe
▁supplementary
▁typically
zeug
▁preis
▁Sternen
▁Future
▁überarbeitet
zahlung
▁joy
▁max
matik
ро
ibility
▁truck
▁logistics
▁Junior
pit
▁manifest
▁notion
▁rank
▁Herzlich
▁Eco
akro
▁Bomb
▁verwalt
ike
▁Democratic
▁Look
▁puts
nnehm
▁Turm
▁Tickets
file
oalition
▁consistently
▁translate
litten
▁Flächen
▁Stufe
▁Hera
▁Mod
NT
weiter
▁Hai
alo
▁Versicherung
▁banana
▁reveal
dé
▁Natural
▁Fotografie
▁CDs
▁liberalis
stützen
▁DI
▁Conditions
formen
page
▁passt
My
▁(„
▁Kühl
Di
▁bag
▁Ibiza
any
cel
▁Antonio
▁Smart
IF
bian
▁Anhänger
▁AR
▁signing
▁Lago
▁auswärtige
ook
▁Wertpapier
▁Engine
▁Parlamentari
Am
▁Argentina
▁на
▁längere
bringt
schech
▁privileged
rleichter
rb
geschaltet
▁ranging
ко
▁Tank
sinstrument
ographische
vé
▁ideolog
▁Fischl
takt
Art
▁erläutert
▁einstellen
▁iran
▁prevail
▁Pharma
▁desert
oz
bereitung
▁Rai
▁movies
hlen
wäl
▁Norm
▁Display
▁plane
öpfe
▁Mus
▁alike
bieten
kompetenz
▁heavily
▁UND
▁blu
▁victim
▁bemerkt
▁Pur
sub
stitu
Out
▁schlechter
▁lieben
▁Experiment
▁innovations
▁beschreibt
▁belonging
▁cameras
itude
▁Santer
▁notably
illi
ą
▁credible
blatt
Rat
osa
▁Platten
▁Erdb
üßen
▁Shanghai
▁contributing
▁Which
▁imported
▁Lärm
▁Rosa
▁Lido
▁closing
▁chart
ständen
▁intelligence
specific
irak
▁2.5
▁Flo
▁psych
▁anpass
▁teach
▁essence
nötig
▁1979
lab
▁clothing
lina
logen
▁Clubs
▁Leid
rol
▁Marx
greifende
▁rescue
erklärung
▁Reit
wy
ße
▁thin
▁hopes
ο
▁erweiterte
▁betreffende
mittlung
▁placing
▁brands
▁Trainings
FC
▁downloaded
▁Kurse
option
COD
▁bureaucracy
▁Eng
▁nehme
▁erschienen
anzeigen
▁dictatorship
▁patterns
ь
▁apparently
▁teure
bling
▁Perl
▁exquisite
▁mandatory
▁NOT
▁wedding
▁bekam
▁künstlich
anta
▁disadvantage
▁publications
▁routine
touren
ción
▁Transit
▁mistakes
▁ruhiger
NRO
eignen
▁Besatzung
fish
flow
▁Glo
▁Visu
zie
▁Aktivität
▁Mineral
▁genetic
▁systematic
▁wake
Hand
▁dominant
▁om
▁downtown
▁Ermittlung
Tech
klag
gebaut
▁Arch
Her
▁schwarze
Kom
▁belt
▁notified
ahrscheinlich
▁Cathedral
fels
Daten
miet
▁leather
▁Song
▁keen
2000
Seite
▁gewinnt
treibung
einheiten
▁Sarkozy
▁Mord
▁churches
▁flying
▁Außer
▁tonnes
▁SC
▁gelassen
▁Tap
▁biological
gebend
sgruppen
▁Lama
▁imposing
▁Ehr
ilo
▁Türen
▁unions
▁finn
▁slowly
▁elderly
hungen
▁ethische
schätzung
▁AM
Str
enburg
▁unanimously
edonien
besitz
▁Besteller
▁@
hell
▁fails
▁komfortabel
▁deficits
kol
▁nuk
▁Juan
▁Facilities
▁precision
VER
sprung
▁caught
kreuz
Bürger
▁fate
bindung
▁pursuan
▁Herman
▁Mä
▁Updates
bauer
ña
▁getötet
▁Young
▁Thai
fon
plätzen
▁decent
▁Null
▁wherever
fürchte
▁nutz
▁Südtirol
▁Technical
▁Innovations
▁Ehren
tical
▁==
▁indicates
▁Autoren
▁HI
▁pub
▁Stell
Jo
▁Right
▁übergeben
▁kleineren
▁qu
▁finger
▁span
▁Verlag
sorgen
▁vorübergehend
schütz
Ti
▁occurs
▁Oft
regt
▁signals
▁adaptation
▁Küchen
▁Wille
▁hide
filter
▁myth
▁Mary
▁Bell
▁Share
▁Konzepte
▁Problemati
▁decoration
sammlung
▁voters
▁visitor
Generalsekretär
ood
chu
▁experiencing
▁measuring
▁Darfur
▁Feier
stern
700
ced
ziger
▁planen
▁Excellent
▁Vogel
▁Hüt
bund
▁Lor
ega
ordn
▁ok
▁stat
▁financed
▁Pay
▁Ala
▁Ankündigung
▁sink
▁bezeichne
metall
▁trick
▁procurement
▁copies
Du
▁tiefe
wertige
▁wartet
▁excess
▁Citizens
▁allmählich
▁Gallery
tempo
GH
Welt
▁engen
lizenz
▁converted
▁elektronisch
▁Iron
▁cooking
denk
▁potentially
▁Donau
▁Kurd
▁Olympus
▁LO
▁arts
szusammenarbeit
kriegs
▁divide
▁Document
▁übersetzt
adresse
▁drinking
gezeichnet
NCC
▁Watch
▁Kalender
▁commend
▁initiated
▁qualifications
▁confident
▁reibungslos
▁Plugin
▁piano
▁Sau
▁Versorgungs
▁Wach
▁Tuesday
▁Gegenwart
▁Tea
▁statistical
sichten
▁Santiago
▁Denk
▁Bali
▁demonstrates
▁nutzbar
▁farms
orben
wiss
quin
Regierung
▁Op
▁petition
Artikel
▁‚
/2000
▁Rec
▁creativity
▁Talent
▁gelernt
abteilung
▁List
▁conventions
cat
dokument
steigerung
balanc
▁virus
▁behindert
ю
cular
kür
▁humanity
▁Ok
▁Ari
▁gekauft
▁Variable
▁Editor
▁GE
▁900
▁ausgewählte
cri
▁vol
ibi
▁Kämpfe
bearbeitung
▁unterwegs
▁premises
samkeit
5.000
▁teilzunehmen
▁pursued
▁Coast
▁professionell
institut
formular
Rezeption
▁Juden
▁parent
▁posts
▁gratis
▁chemicals
▁fantastische
▁EL
▁receipt
▁Divers
▁Lim
exe
▁answered
▁paradise
▁gefährden
▁suggestion
breitung
tiere
▁Clinton
probieren
▁DIN
▁vorbehalten
zeichnung
lagern
▁verknüpft
ли
mengen
▁Arc
▁crash
▁Angehörige
▁Forest
vac
pause
▁borrow
▁fühlt
▁Qua
▁tropical
▁Lück
▁Devis
PG
▁Alternativ
lj
rass
▁Rassismus
Länder
▁Roh
▁Gremi
bereit
▁Angeles
titel
▁aufgerufen
▁demographic
▁equip
▁Model
▁Deep
amo
▁turns
▁SS
schön
unta
▁Müller
RU
▁trains
▁ausgebaut
▁tägliche
▁beings
▁indische
artigen
intensive
▁tranquil
cious
▁arbitrary
▁headquarters
▁belegt
igend
▁exhaust
▁failing
▁Gla
lier
▁respectively
▁Tabelle
▁Spin
▁Elevator
▁drives
▁unemployed
cru
löst

▁Produzenten
▁Wiener
▁Verletzungen
▁worry
▁dial
▁partial
▁vielseitig
▁deaths
▁Therapie
▁reiz
▁Nar
tie
▁vergleichen
utz
▁Entstehung
▁Beratungs
änen
▁disappear
genuinely
▁notification
▁handled
▁releases
▁Alltag
tico
Zwangs
▁dating
▁96
▁Choose
▁Kreativität
▁Vulkan
erbaut
▁Offer
euer
▁06
▁Bert
LY
▁biodiversity
▁chamber
verbreitet
▁Busse
▁Herberge
▁Custom
sproze
2%
▁gezielt
▁warmly
/2
anza
▁Gärten
stätte
NO
ception
▁98
▁Similarly
▁Großen
▁lighting
▁Lieblings
wendig
kunfts
▁appreciated
nähe
▁Partition
5-02
vez
▁Baden
▁competences
höfe
Modell
srate
▁meint
▁Wörter
▁disputes
▁admire
kräften
▁spin
iche
▁Jacques
siedlung
erlebnis
▁Schwimmbad
setz
▁heated
▁kulturell
Raum
werkzeug
▁Sehen
NN
▁bind
▁ran
▁Guinea
▁treaties
▁fitted
▁entries
▁occupied
late
▁Palacio
scheu
▁AT
▁Abu
▁facto
leidet
").
▁designer
▁würdig
Emission
▁Bind
aktivier
▁rigorous
▁Jackson
▁statistische
▁wechseln
▁crossing
▁coverage
▁Help
ric
▁Schienen
▁patents
▁exemption
▁transmit
▁erinner
▁populations
▁weich
schwei
▁mono
prä
profil
▁Motto
▁Eisen
▁natur
▁späteren
/01
▁Regionalpolitik
▁Apache
▁expanding
▁posted
▁Swimmingpool
kampf
▁dollars
zustand
▁DS
▁Etwa
▁lowest
▁Relations
WI
ises
▁aktualisier
ML
German
Legitim
▁toll
▁Elektronik
bef
▁Everything
▁viable
▁workshop
zusehen
▁Staatsan
rutto
▁Again
▁Museums
▁tribute
▁Gebühr
▁stops
▁Eigenschaft
▁Wood
eign
▁Einblick
▁licence
grenzt
▁killing
ija
▁Sensor
▁passive
▁wirtschaft
cion
="
irgendwo
▁exert
ł
▁Stick
oxid
▁graphic
▁Socialists
ffentlich
▁practically
▁kostengünstig
makers
▁centers
▁pair
CL
▁Formel
▁desirable
▁bezogen
verse
brücke
rez
▁Israelis
▁stroll
▁erfolgte
rlehen
▁Erkrankung
▁phones
▁vorbereiten
▁workshops
rände
▁specialities
aten
▁Aufsicht
farben
ICA
▁Short
äbe
▁hike
▁passier
▁Lanzarote
tial
▁kost
▁eindrucksvoll
2006
übergreifende
▁roman
▁Consulting
ssel
trop
▁58
▁Korean
konventionell
▁Obviously
▁parlamentar
lamp
▁Canaria
büro
ungsan
ILL
▁plot
▁versteckt
▁displays
uel
▁Sensi
scheidung
▁Split
▁großzügig
cis
care
acy
sucht
BE
▁Schmerz
leb
▁authorisation
▁photographer
reinigung
hes
▁ends
/1999
▁Lebanon
lern
▁Speed
▁cal
▁specifications
▁surf
kam
▁disappointed
cm
Dr
▁viewed
mässig
▁Vorbild
ichtbar
▁controversial
▁yacht
▁solved
▁tolerance
▁Serb
▁assured
▁abgeb
▁correction
▁equity
▁Kommando
mix
▁Beton
▁inclusive
▁Fusion
▁lovers
otti
▁sportliche
▁boom
▁delicate
▁breathtaking
▁verzeichne
▁Mega
athedrale
▁sicherer
fund
▁paint
mögliche
▁Aufträge
▁Fett
▁choosing
▁defining
omb
▁begrenzte
scheid
▁timely
éri
KA
tti
▁pm
▁visits
▁ged
svorschrift
▁Parallel
▁Gulf
▁cabin
harm
otic
most
verg
▁Slowenien
fan
▁wording
▁Bezahlung
▁angewiesen
▁Sprech
▁teacher
iga
yes
pé
ext
speicher
platten
quir
▁insofern
▁kids
▁processor
▁erläuter
werks
▁Interpretation
ungslos
▁Behauptung
ð
▁Realisierung
uous
asso
reben
▁einzigartig
▁Grill
▁enlarged
holt
auto
▁Allow
/98)
▁substantially
lder
Test
▁settled
▁Schicht
aufsicht
▁harmony
▁Cocktail
▁Liban
▁reiche
▁Cold
▁thoroughly
▁meantime
▁signature
▁Niederlassung
▁universe
▁agent
berger
▁Vergnügen
▁66
demokratische
1)
▁comparable
▁stetig
▁describes
▁avoided
▁beispiel
▁terror
▁Thun
▁gebucht
▁inbegriffen
▁investier
▁schrieb
emission
▁Kommentar
▁restaur
ट
▁Panasonic
▁wi
schäden
▁sessions
▁unverz
helfen
▁survive
fecht
▁verbindlich
▁Gui
▁Getreide
▁mitgeteilt
hausga
▁Fabrik
klima
ivile
▁RO
▁zeitgenössische
▁cup
verein
▁1984
KO
▁mod
ursache
▁Einer
▁zones
▁Review
cie
▁herkömmliche
yp
RG
▁talked
IX
▁Leuten
▁erzählt
EIT
▁scenery
▁werfen
▁lifestyle
▁Sit
▁funded
▁christliche
lob
versuche
▁bot
▁contradiction
geist
game
▁finest
▁sach
▁findings
▁beschreiben
kräftigen
install
▁Fehlen
▁dicht
▁geschafft
▁interessieren
▁marriage
▁premier
▁phrase
▁korrekte
▁lakes
▁evil
▁incredible
▁preliminary
▁musikalische
▁adhere
▁Lot
▁Wol
▁crops
▁[[23
▁Milosevic
▁linguistic
▁Allein
stop
▁consequently
▁amend
▁Additionally
Dis
▁slip
Partner
big
ASS
▁AKVIS
▁Entertainment
▁Petition
▁chambres
schritten
▁nonetheless
▁tips
Rahmenprogramm
▁Sammel
▁Mount
kabel
▁een
▁geschmackvoll
▁Kindes
erfahrung
▁tunnel
▁Student
▁Oslo
▁spar
DM
▁Hannover
▁Migrant
▁heilig
▁incident
▁neueste
▁Summer
logg
▁distortion
▁degrees
▁angle
▁Vermarktung
War
aufgaben
berichte
▁performing
▁photography
▁exclude
▁Latvia
▁Algeria
▁AB
▁Quell
▁Moderne
▁perspectives
▁respects
Parliament
2007
▁enttäuscht
▁confusion
▁Mile
▁lesson
▁melden
▁terrorists
▁2000.
▁Komm
Fluggesellschaft
▁Erfolgs
▁acquis
ulator
▁Ungleich
▁Wolfgang
▁450
▁prim
▁Frucht
rüstung
BB
hou
▁qualitative
GEN
▁chocolate
▁Bezirk
shilfe
Par
praktik
encia
Center
alis
▁stilvolle
srichtlinie
▁Vorgaben
▁Jahreszeit
▁droht
▁emphasised
sieg
klagen
▁Nuk
fertigung
ktiv
▁Eck
▁63
▁Armen
▁defeat
volumen
▁Meldung
east
▁pact
▁Erziehung
▁temperatures
ATION
▁Blu
▁Hart
migrant
after
▁incorrect
kes
▁Koordination
kos
▁Leidenschaft
wickelt
▁04
wick
▁disorder
lege
aca
▁wages
empfindlich
hir
▁Manche
▁automation
ка
imi
materialien
▁Cubase
auer
▁platforms
▁delight
▁zeigte
▁returns
Up
bünde
▁fährt
▁Kir
▁1.2
▁2002,
▁по
fekt
▁auction
▁parameter
▁controlling
grade
schilder
▁unstable
▁giant
▁admitted
▁vorangegangen
▁Host
▁2001,
▁incentive
reserve
▁Fähr
▁Liby
▁Atlantik
erlangt
minder
τ
Image
tang
▁font
▁worthy
▁Bruder
▁Abstand
Ent
▁emission
▁voneinander
▁rejection
▁FAQ
▁expressing
▁verhandel
▁gym
▁Zivilisation
▁sponsor
▁Patch
▁schützt
beleb
quart
▁Rie
▁recipient
▁Zubehör
▁attain
aller
▁Pel
nea
ugnis
Si
▁Gest
▁Rücken
ließ
▁Nonetheless
ondo
LAN
odex
▁Schuh
ár
▁executed
ELL
▁Touren
▁highway
▁BR
Leistungs
▁Bit
▁Wellen
▁isolated
▁nette
FE
▁Johann
▁explains
▁]
▁Stornierung
▁Attraktionen
▁Finance
▁loved
▁undertakings
ulating
▁bedingt
ulate
▁noble
▁bureaucratic
во
▁centrally
▁Ultra
▁Machine
colo
irr
1%
MENT
immer
▁acknowledged
umb
né
▁LAN
▁prohibited
azione
▁Implementierung
▁pedestrian
nteils
▁Darin
▁conversation
▁modest
▁moves
▁Zertifikat
▁eingebunden
spricht
biegen
▁Albani
▁verbindliche
ehe
▁Palestine
▁electro
▁Local
▁Verd
▁Zufriedenheit
▁strukturier
This
ventiv
▁keys
▁challenging
▁Multimedia
läd
▁Agent
▁drafting
Trans
▁Betroffenen
INI
▁MI
NC
▁sacrifice
#
erische
▁62
▁vielfältig
▁ignored
▁Norway
▁pipe
▁verst
▁Week
warten
hause
▁elite
▁slot
verantwortlich
▁Dritter
▁Musiker
▁57
▁manuell
▁beurteilen
▁sporting
▁investigate
▁fought
▁erkennbar
brecher
▁puls
▁rau
Aufforderung
üchtig
klick
xx
▁characterized
Produkte
▁Lab
▁unberührt
Europe
▁Breite
ehnt
ivil
▁Produktiv
map
sfähige
▁Font
▁Entspannen
▁optical
frau
▁drama
▁->
▁watching
▁fragment
▁Round
▁settle
▁LE
eia
▁vertraulich
infrastruktur
▁inspiration
▁Exhibition
conditioned
▁interaktive
ées
▁Sales
ów
▁EM
▁Präm
beratung
▁Bl
▁battery
▁birds
▁Kreat
rieb
schneid
sziele
▁setup
▁damaged
zöger
▁fulfilled
▁Zertifizierung
-6
plast
▁bewa
verantwortung
EEC
▁Luggage
kommission
▁Guard
▁Hunde
▁wunderbar
▁Hence
ticket
▁Dich
▁Zw
Demokratisierung
▁warming
▁sanf
other
uelle
▁paintings
▁Kamin
▁Maison
heil
▁Quick
case
gehörigkeit
▁Simon
▁conveniently
▁Aires
▁indirect
▁spi
▁grass
Land
isa
▁1978
▁Stimmung
▁Irr
gefasst
▁Auszeichnung
▁Doppelbett
▁Liquid
▁Prophet
▁Auftraggeber
pfen
▁measured
disziplin
▁Disziplin
deckung
▁Lob
▁Everyone
Gra
▁Mühe
▁Sek
▁Festung
▁Höhen
▁shortcomings
▁adverse
kut
spart
▁Wales
▁atemberaubende
▁alpine
▁92
mauer
Kompromi
▁SD
▁guidance
▁Heating
fremd
loser
▁Erwachsenen
▁portion
Standard
Systeme
▁papers
▁Zen
räumt
-18
mac
protokoll
▁Declaration
▁clarification
▁Geheim
▁regrettable
▁Rü
▁Scan
UD
▁Alpine
ality
nitiativ
pac
▁Active
▁erstes
nsonsten
gle
active
using
mount
was
eken
Bild
▁Sym
▁schreibt
▁Provider
ansprüche
NI
nütz
▁1967
emäß
▁Allgemein
▁befindliche
astronom
mä
rec
▁3000
ending
drive
▁Eingriff
regen
▁hole
▁Gestalt
▁setzte
▁Züge
▁conjunction
quis
ärer
schwa
▁congress
▁Christen
▁unlike
▁Weit
sparen
lade
▁Tech
agg
▁disagree
haftet
▁namens
gänglich
zione
▁decrease
iegelt
▁Oberflächen
▁outset
dep
century
▁sheets
geschnitten
▁agieren
▁Leder
▁fifteen
▁Tun
KW
ssert
▁//
▁autonomy
▁bien
▁Gründer
▁Geschlecht
▁Color
▁bond
befehl
vermiet
▁erstaunlich
▁odd
▁Solo
▁complexity
zubereiten
▁condemned
zzi
▁Gam
tests
▁simplification
motor
haber
▁Letzt
▁realisieren
mod
▁publicly
▁hoped
▁Gala
▁Nazi
▁grob
train
▁login
▁passport
SR
▁assert
▁Studios
oj
building
▁Pod
▁Stress
gesch
▁engineers
▁volunteer
herrscht
graf
▁Diktatur
chor
▁ON
forum
▁Graf
▁statute
▁Aufklärung
gur
▁debat
▁bitter
▁Army
▁prerequisite
▁Albania
▁stopp
▁governed
▁declarations
▁WE
▁studiert
▁dust
▁Konserv
▁café
tappe
ohlen
4)
▁lets
night
▁cosmetic
▁Masse
▁3.0
▁Lodge
flüge
▁directions
regend
▁camping
LIN
nötige
▁subscription
▁restoration
▁Rande
▁subsidiary
▁Lanka
▁realized
▁trocken
▁Stadium
▁tone
▁definitive
▁monitored
beitrag
müt
▁Mittler
5,000
▁Low
ßlich
awa
▁Wil
▁Trends
RY
▁Silber
ufer
▁beam
▁recipe
▁intelligente
▁branches
1,
owned
▁Massa
▁inquiry
▁undertaking
▁Ansätze
▁Building
▁tar
▁herrlich
▁excellence
▁gesondert
▁thread
▁flowers
▁problematisch
▁Ster
▁Straftat
▁Bai
▁Kleidung
förmig
▁Clearly
▁Marktwirtschaft
▁surprising
agno
▁Climate
▁Moldova
▁tiefer
ichtet
▁critic
type
vestitionen
▁unfortunate
▁Spam
▁Features
▁raises
wahrscheinlich
▁FA
▁indication
▁migrants
▁clip
▁downloading
▁GB
▁Abs
▁Tempel
▁lend
▁faszinierende
▁entscheidet
gefahren
▁climb
bräu
▁eu
▁closure
▁persuade
▁traf
▁SI
▁pride
▁lacking
▁neoliberal
▁Quartal
Preis
▁Neo
▁Turn
kä
stick
▁emphasize
spruch
▁Vorgänger
inger
▁pioneer
▁partnerships
▁Pak
▁gefällt
miniert
▁messen
▁founder
▁wach
senkung
rett
heiz
▁analysieren
▁Buenos
▁zufällig
ATA
▁Aktiv
▁Orange
AA
gründete
mun
EI
▁survival
änze
Pol
kasse
▁abandoned
quet
▁sustained
quest
▁Felsen
▁warme
▁Spuren
▁Championship
währ
CHE
▁characterised
lusion
potenzial
GN
▁returning
▁freiwillige
▁Provence
▁badly
miss
stößt
sfalls
▁quota
trags
▁officer
▁structured
▁derived
ströme
▁Luftverkehrs
pakete
▁embryo
▁upcoming
▁founding
iness
▁maps
imbabwe
▁verwöhnen
▁Fachleute
▁Colombia
Hi
▁Highlight
▁jüng
ller
gler
▁Rab
▁Bäume
quent
▁Beat
tura
zugs
▁jüdische
▁zurückge
▁Mario
▁Inhalts
▁Kreditkarten
▁Grundstück
▁homepage
▁separately
)).
▁Skript
lves
▁enforce
▁penalties
▁2007-2013
▁Brun
▁gather
▁Inspe
▁Klass
▁Tyrol
▁Bü
▁Höhepunkt
▁Titan
Spa
▁Argentinien
▁tender
▁Automat
anteil
▁schien
▁offence
▁gesucht
▁Rental
▁Dienstag
▁sing
▁schließe
▁Chicago
▁Wahrnehmung
▁striking
▁Animation
▁finances
▁harmon
▁administrator
round
ständigen
▁tailored
▁£
▁Whirlpool
▁Echtzeit
▁Mannschaft
900
efficient
lone
▁Darauf
ono
hüt
▁starb
▁Superior
diskriminier
▁taught
▁Blau
▁Königs
▁simplify
schlug
▁knowing
▁Übung
▁chairs
▁iz
fleisch
▁tension
▁spots
▁Nutz
▁Horn
traf
LM
itch
▁unmittelbare
▁Cultural
schall
▁sustain
▁Avenue
sticht
▁excuse
▁API
▁heftig
▁ausgestellt
stöß
▁cla
▁trail
sgrad
schreibung
▁gelang
▁registrieren
▁accepting
▁verbracht
uhr
Distribution
▁arbeitete
cated
kanal
artig
▁Magic
▁Manhattan
▁Meinungen
▁zwingend
hafter
medien
gam
genau
direct
herrschaft
EWG
▁erholsame
▁Journal
▁Russ
▁racism
▁Ay
▁filling
▁celebrated
haftung
rod
stuf
trust
▁Begriffe
▁persist
iza
Port
▁exploring
▁Layout
▁macro
▁til
▁Bewegungen
▁wechsel
▁Holy
▁Mercedes
ARD
▁vegetables
▁1975
▁Ross
▁Büros
gelt
tool
rov
ndwirtschaftlich
ш
▁Interface
▁beeinträchtigt
▁checking
▁Leicht
orientierten
▁correspond
▁Weihnachts
▁Niemand
▁dunkle
CNS
▁telling
▁sinn
▁Plug
Recht
macher
mad
▁fitting
basierten
▁Fertigung
▁Behinder
fizier
hem
aufenthalt
nya
enswert
vern
▁passage
▁scharf
▁isolation
▁Lange
▁Technologies
eisen
▁Reader
▁defects
▁(8
▁Mei
▁Palazzo
▁denied
heiß
▁hunger
▁shareholders
▁scar
▁Quer
▁assumed
▁searching
▁Diamant
▁mixture
▁Bach
▁Fernseher
▁Mak
▁mailing
▁schw
Haushalt
ausgegeben
▁stamp
▁Later
ION
Christ
▁Kont
▁god
▁REACH
fahrten
wards
▁90%
wall
▁Pal
▁distribute
▁identical
change
▁hoff
user
▁beantragt
▁regelmäßige
schoben
▁Jet
chenschaft
▁schlimmste
▁automated
▁Kammer
▁esta
▁Meanwhile
▁pocket
▁requiring
▁tremendous
▁Harbour
alismus
▁intuitive
▁Unfälle
/2006
gramm
▁jahr
▁transformed
▁camps
▁Dekor
▁Nano
anna
▁analysiert
▁circulation
▁recycling
▁Theatre
szentrum
lings
medizin
schütt
lust
▁sy
slav
▁Aid
▁sw
▁interim
lanz
stechnik
HL
▁seminar
Karte
▁defense
▁treasure
▁getestet
▁pursuing
▁trademarks
▁Ry
schuldigen
▁defending
▁Alp
Neu
▁Sometimes
endet
▁cri
ometer
source
flanzen
lein
▁1982
fabrik
▁AV
züglich
▁Virtual
▁compensate
▁Geburtstag
на
▁belg
▁reproduction
▁participated
▁overlook
▁UV
▁Verona
▁Brüder
jack
▁pays
▁seminars
▁Nature
▁approx
▁Near
▁°
Ländern
▁Ky
▁anonym
▁Ausgang
▁Wende
▁Touch
▁Erscheinung
▁88
▁Residenz
▁Wohlbefinden
▁angeben
▁perception
▁Rasse
▁drafted
▁bonds
▁Zimmerservice
kauft
Rindfleisch
▁muy
reit
▁07
▁continually
▁Mars
▁passen
gehalt
▁gemessen
polizei
php
root
▁Movie
▁1968
endes
▁shortage
та
fett
▁Techniken
▁Hir
▁Stabilitätsp
▁stood
▁Above
▁Campo
▁einsetzt
▁Steve
GO
▁nett
bö
▁Sin
▁departments
▁05
▁combining
▁quantities
▁Hochschul
▁consistency
orts
ddle
mund
Mit
▁Lust
▁Gültigkeit
▁grösste
▁ausgerüstet
LP
amento
aciones
fur
▁Frequenz
▁Bauteil
▁Arg
▁Currently
▁infection
▁Rezept
▁schlechten
entsprechend
▁Feder
▁Flüss
public
▁About
lö
ßten
▁Zehn
Protokoll
lücke
▁Zeuge
Inter
▁cope
▁Put
▁Bob
▁imagin
▁editing
amma
▁Reaktionen
▁Mozart
▁discretion
▁weapon
▁cheaper
cycl
ermut
eignet
▁Segment
▁ext
▁tur
▁brochure
ldern
▁coalition
rief
cla
▁tat
▁Stalin
uba
▁60%
▁Silver
rücken
▁sightseeing
▁deutscher
▁Abfahrt
▁Metal
graduate
▁enemy
▁Einkauf
▁straf
▁officers
▁1920
agon
Tool
▁Barack
probe
etic
▁Raums
▁annex
▁Protest
▁Große
▁compound
▁implies
CP
▁verlängert
▁orange
▁stringent
▁innen
hole
ettet
▁Deb
/2002
Mi
saussch
▁bedenken
▁Heritage
chwächen
▁Tirol
▁Pad
sorten
▁grants
ändig
▁Brennstoff
sarbeit
komponente
▁Products
▁clothes
▁exceptions
taucht
▁Medical
sberg
tourismus
iker
▁Marbella
▁Gummi
▁Mugabe
▁populär
▁Marc
▁Naturally
hôtel
▁Chor
▁2003.
▁Try
peri
▁Effekte
ereien
gil
▁Grande
Bi
hundert
straßen
▁minim
▁Eurostat
vier
▁unlikely
▁
▁Siehe
▁190
▁trennen
iri
▁Fish
affe
▁suddenly
▁cargo
okratische
▁Übersetzer
chalter
▁outline
UP
▁Singapore
▁geograph
schaut
▁fears
▁Vorsicht
▁optische
freundlich
▁Stay
ā
wahr
▁verhalten
feuer
▁colonial
▁Bisher
▁fried
▁köstliche
annual
Player
▁großzügige
▁Drucker
crypt
▁wöchentlich
▁trails
▁Grau
▁Ny
▁dell
▁Bedingung
konflikt
▁Vorstand
▁Sorgfal
riterium
▁herrschen
szeitraum
▁61
▁transparente
▁Erfindung
ggi
▁overwhelming
cture
▁Architekten
▁calculated
▁wirkungs
urteilung
igo
▁gesundheitliche
▁Benjamin
▁consolidation
▁traurig
▁folk
stall
▁demonstration
▁keeps
▁Träger
▁gehol
▁champion
kale
▁Chemie
▁width
▁Monats
sprechung
▁cod
▁veranstaltet
kri
▁girl
▁geplante
plex
Ozean
▁workplace
▁deleted
▁Folg
▁unlimited
▁Sevilla
▁banned
▁distinct
▁Pres
massage
fire
had
▁beseitigt
▁Chan
regelmäßig
has
▁Vot
▁ending
▁preferences
▁benachrichtig
▁german
▁wing
▁performances
Säule
▁Visual
kontakt
cop
▁Potential
▁unprecedented
▁herstell
▁concentrated
Mark
dauert
▁Impulse
▁accord
▁Working
▁Batterie
▁Imperial
West
▁listened
▁Limited
Azur
▁Catholic
▁Hongkong
▁enthusiasm
▁Wiki
▁Listen
ington
▁pipeline
▁Valle
▁doppelte
▁Schreib
▁doctors
▁FC
▁Seen
dress
▁securities
▁betr
▁modes
▁rival
▁consisting
USA
bound
▁Schaf
Dienst
▁yellow
▁accused
sheet
▁skill
▁cure
▁Programmier
bilität
▁ensured
wehr
sstelle
▁Could
door
▁Stau
▁Danube
▁vicinity
▁Norwegen
▁aufgehoben
wissenschaften
break
▁verstoßen
▁Besondere
cheln
sprach
haltige
andlung
▁Leon
manager
wett
▁luggage
leit
▁observers
bewerb
▁psycholog
▁Privacy
▁Š
▁Rub
▁Brenn
▁Stone
master
IST
knüpfen
öhnung
craft
abschluss
▁billige
Tre
▁explicit
ż
▁permanently
▁aesthetic
▁random
▁theoretical
▁Unit
ausstellung
▁Fundament
▁Total
▁wiederher
▁culinary
▁vorherigen
▁trigger
▁rep
vre
dur
▁sont
lack
▁embedded
▁translations
▁coating
▁newspapers
▁Decision
smethode
NP
rede
Gesundheitswesen
▁temple
meer
ania
▁ambience
▁justification
▁Though
RES
tät
truppe
▁170
▁engagement
▁Aff
▁beobachtet
▁02
▁grew
▁Aufstieg
▁boxes
oph
▁tatsächliche
▁steep
▁Energieversorg
▁Indem
▁03
cos
▁verleih
härte
▁flavour
▁refined
▁discovery
▁Salon
▁assumption
RK
present
▁vertical
gerichtshof
bricht
▁Mich
▁fuels
ugg
▁gef
▁carrier
▁endless
▁Champion
▁continental
nick
▁Hab
▁Way
ï
limit
▁1.1
▁tissue
▁Henry
▁15%
▁veröffentlichte
terra
herrschende
wende
▁Ausstellungen
▁stra
sprozesse
▁Aufnahmen
UC
▁eigenständige
▁Flach
wusst
spitze
(1)
▁analyses
ault
▁Minimum
▁Peking
▁bewirkt
▁Prote
Free
▁kompakte
▁Granada
-17
gasse
▁exchanges
sichere
monat
▁Tagungs
olche
▁typ
Strahl
▁SCH
▁76
▁tackling
rasse
tex
ünde
▁specialised
▁1976
azi
▁durchsetzen
▁erhol
▁(3)
▁tells
▁GBP
eingang
▁NH
▁weekly
▁Jugendherberge
▁Zuschauer
▁regimes
▁Virus
▁complimentary
beln
verbände
▁Auslieferung
▁Käse
uto
3)
krebs
▁vernachlässig
▁Fülle
guard
▁geringere
▁gesund
▁zeichnen
▁Portfolio
▁tangible
▁trademark
▁Univers
ATE
▁possess
▁warranty
▁vermute
▁thoughts
▁estimates
▁Höhle
flügel
▁wertvoll
▁materielle
▁eingeb
dringen
▁abolition
▁optimum
▁Channel
▁Upgrade
▁poet
▁bescheiden
▁Advanced
gelder
▁fliegen
▁loud
ibel
proof
▁Jahrestag
▁develops
VA
▁Karel
▁Seg
▁publisher
▁1983
metric
stützt
ण
▁regulator
▁Dam
▁passes
▁receives
▁actor
▁Rohr
▁Bluetooth
Ne
▁schlage
▁shipment
nutze
ried
▁Edit
▁Rüst
▁demanded
]]''
▁vielfach
feder
veranstaltungen
▁tiny
hotels
▁FI
cra
▁vice
▁Monitoring
▁Netto
▁Kette
ν
▁größtmögliche
nkungen
alia
gru
fernseh
ipp
▁eingebaut
▁Balance
▁1%
listet
proze
▁bell
▁twelve
▁analyze
▁grape
▁más
▁Leucht
▁gingen
▁connecting
▁Mach
▁grade
gui
▁Trau
▁Eurex
▁Mul
▁implant
▁epi
▁earthquake
▁orchestra
▁Railway
▁GR
▁Production
▁rat
▁Schnitt
road
lohn
action
lice
▁vermiete
profit
380
cco
▁Merkel
▁unterliegt
▁Alta
▁Keller
▁Expo
instrument
▁assistant
▁Package
▁befand
▁Geber
▁storm
opoulo
pair
kh
▁rivers
▁attribute
▁mining
▁employee
chef
0.0
lling
▁alive
▁instant
▁akzeptabel
▁separated
▁obtaining
Zimmer
sender
▁deemed
kühl
tätigung
yra
▁Philippine
gia
stitution
▁booth
▁Mailand
▁vorläufig
▁furthermore
berechtigung
▁vessel
▁illustrate
▁cow
Check
▁müsse
On
▁automobile
▁Large
summe
jahre
gangen
▁Sponsor
▁baut
▁Spazier
▁confront
▁landscapes
▁congratulations
EGF
▁adjusted
2004
▁gepflegt
▁Sortiment
▁rigid
▁Annual
▁PE
▁sick
bak
KS
sili
▁Officer
▁Schwimm
player
▁Russisch
▁Befreiung
▁arrested
▁Depend
▁Much
Gleichbehandlung
▁Gesprächen
kopf
activ
▁noticed
size
ompatibil
▁Abwicklung
▁Jagd
▁pledge
▁Bremen
depth
chtung
▁competitors
leuchten
▁Coll
▁rhythm
▁ueber
▁Clean
▁Appell
▁Engel
poli
▁Perspektiven
▁guides
▁Caribbean
▁hairdryer
ACH
▁weibliche
▁Siena
held
lucht
TF
▁missions
Time
▁commonly
▁Internetseite
lith
spannung
▁bone
ità
▁influenced
Mails
▁antique
▁protein
füllung
ulated
▁symbolic
▁Deluxe
▁Moor
firmen
dice
▁echo
flex
▁owe
import
▁advertisement
scheinbar
WC
fordert
▁suspension
▁Halbinsel
▁beverage
▁juice
Liste
modelle
ermeidung
▁Pont
cade
/2010
▁Connect
wohnung
▁refurbished
▁Senior
▁independently
▁Picture
▁Depression
▁70%
jahres
▁distinguished
▁Verst
▁gathered
▁royal
▁bestens
betrug
▁haus
-15
erlegt
PD
▁gelöscht
▁lief
▁Hyper
silber
his
tiv
▁salle
▁benchmark
▁bold
umgebung
ides
▁67
DEM
▁vertrauen
▁einzeln
▁Berlusconi
▁nano
▁Temperaturen
▁keyboard
vu
▁Dro
▁profitable
▁Auftritt
▁Elektri
dichte
away
▁gleicher
index
▁dominated
▁Terra
▁modernes
▁Kana
▁capability
bilisierung
kalen
bäume
▁überraschend
ichtungs
▁ur
▁plate
▁Panel
Website
▁gentle
▁zahlt
Über
▁shell
▁Jews
▁coup
▁monthly
▁Graz
vorstell
▁missed
verordnung
▁vorne
▁Tha
▁household
▁Anleitung
trockne
▁Button
▁9,
▁beider
▁hosts
▁Passagiere
▁backing
▁Canal
▁sozio
▁disco
melde
▁sister
Systems
▁Frattini
▁2014
▁ambitions
▁Nachteil
▁EMU
▁Fourth
beam
Bit
▁Bedien
hip
▁Promotion
▁Messung
▁gains
▁Merc
albeit
▁Tin
spend
▁Frühling
also
▁pri
▁deutlicher
element
bewusste
nesische
ständige
▁elf
▁Streich
tha
▁imperative
▁appreciation
▁78
▁kilometers
export
uta
▁singer
▁CS
▁ideological
▁mess
▁Schneid
▁stakeholders
▁BI
▁Auslands
▁feine
▁removing
oro
▁Rica
sistenz
▁Funktions
▁Überraschung
▁Rosen
▁ermittelt
▁preventive
ogue
werf
▁presentations
▁Pierre
WU
▁nowadays
richen
▁Walter
liert
▁eating
▁-->
▁Voyager
gehörige
▁coin
▁Watson
▁Directors
▁vot
▁BC
pad
▁TAC
▁wander
▁grafisch
▁deutsch
acion
▁Collection
▁laboratory
▁Exporte
▁authorised
▁intent
race
▁testen
▁günstiger
stimmungen
tzend
blo
DD
zoll
expert
▁greifen
▁schm
▁Rohstoffe
Euro
modul
▁verf
▁offset
zucht
/2009
cup
▁genügt
fänglich
▁struck
amos
▁Evaluierung
▁transmitted
▁Rather
archi
▁erschien
Tour
wil
▁Facebook
▁markt
normal
▁59
Link
/20
TOR
▁hectares
▁hilfsbereit
▁Ax
methoden
EPA
labor
▁Mira
freud
▁gerechte
▁Outlook
▁Bud
▁Store
▁codes
▁3%
▁supermarket
▁Rating
sozial
▁acted
▁Delta
▁Wagen
▁Core
IB
▁mask
lac
base
verzeichnis
tarif
▁separation
▁Rotari
oberste
halter
▁college
▁married
▁boundaries
Wo
Log
ously
▁ratify
TOS
▁Ereignissen
▁Oxford
▁pragmatis
▁differently
▁zertifiziert
▁extremist
▁Unterschrift
▁thick
debian
▁roughly
▁Congo
▁Pixel
▁Wüste
integr
▁countless
▁Spekula
▁Regard
▁capacities
▁currencies
▁unanimous
▁geladen
▁Pet
weich
▁82
▁Konzerte
▁dossier
▁verschl
▁shade
aught
▁geklärt
worauf
▁Oster
▁Radi
▁investigations
▁Gab
▁Aufsichtsrat
cid
XX
▁musicians
▁eventuelle
icht
ßig
spot
▁Alex
pell
▁sensation
▁grip
Unternehmen
▁brauch
vic
▁fulfill
▁Migrations
▁distort
▁agrees
ites
▁Gian
▁permits
▁standen
▁zusammenhängen
▁(15
▁reductions
sole
▁animation
▁virtue
Char
▁utility
loc
anchmal
▁grid
▁CPU
'''
smethoden
▁Romanian
ück
▁Tokyo
tipp
konzern
▁Daru
strahlung
structure
scape
One
ODER
ske
▁Ty
▁Ukrainian
MG
steller
/02
Klasse
то
▁lens
▁habt
▁Cart
▁Tunes
▁Sahara
▁resorts
HI
▁dev
▁unterstreicht
▁Schild
range
▁observations
▁Beschaffung
▁flie
iya
▁Analysen
bares
▁silent
▁dick
▁GM
▁towels
▁Algarve
▁brilliant
▁scandal
▁smell
▁inequality
▁afterwards
▁boy
▁supervisory
▁(6
aure
▁Hollywood
TZ
▁allies
Gastfreundschaft
▁Ange
▁wunderschön
▁catering
AF
▁kompetente
▁MPEG
urzeln
projekten
lärung
▁uphold
▁consulted
▁indigenous
▁Fin
▁Guatemala
▁Rimini
terhaltung
▁Terrace
republik
▁zugeschnitten
thal
▁Rabatt
▁Ung
garantie
▁partially
europa
polis
▁Durchschnitt
▁Blizzard
wandte
▁1981
▁Audit
▁Anne
▁2,5
fache
▁Palast
▁cycling
gewo
▁investing
▁abolish
tschritt
▁invested
▁Bir
▁safely
▁schöner
kla
chrom
▁Klingon
▁aroma
▁seaside
ehälter
▁husband
▁reconciliation
▁constraints
▁pig
performance
▁vineyards
▁Tunnel
▁Tab
▁embrace
▁harvest
▁Beauty
eff
finder
▁Tabellen
osse
ündeten
▁vorgegeben
lima
▁betreut
thema
chance
ть
▁Statute
▁Anzeigen
ň
becken
▁march
▁finishing
▁Innsbruck
▁loading
▁grau
▁owing
▁Diplom
▁ruin
▁winners
where
▁reduces
▁linear
▁autonomous
▁Exe
▁Zäh
▁Dol
wuchs
machung
▁Afghan
streich
▁weitergegeben
▁socialist
note
▁Battle
▁Krankenhaus
männ
comp
kündigt
▁motivated
studio
▁Lib
▁unterb
▁[...]
equipped
▁erhöhte
rumpf
Chi
▁Alarm
▁journalist
koppel
netzwerk
guer
▁summary
fact
▁familien
▁Mountains
▁dangers
▁critique
▁Brown
▁districts
▁Schwester
▁featured
▁legend
▁sincerely
β
ierbar
modus
debat
▁Nächte
▁durchgeführten
blätter
▁derogation
sprech
▁responses
▁1500
ergehen
▁Lösch
▁damaging
cou
▁mount
bow
▁prop
ić
▁Ple
▁dachte
lite
▁Kri
anzeige
▁workforce
▁bist
▁Converter
▁Sep
best
örungen
ussy
▁Loch
▁feiern
nannte
▁Did
zähl
▁Trail
▁Gleiche
▁railways
tini
SF
▁revenues
▁attempted
▁cloud
▁intimate
▁cro
steiger
Video
Web
▁Verband
▁motiviert
ünder
▁indispensable
▁Walk
▁cream
iven
▁125
reaching
▁Between
ital
▁designers
stuhl
zusammen
▁reaches
ANT
▁Erhebung
überwachung
treffend
▁Regimes
▁1.0
▁mould
▁Côte
bury
▁hang
▁Bass
dam
▁Rekord
▁Leonardo
▁Rhine
▁Toleranz
▁commerce
aktive
stab
▁admission
omme
▁Beachten
▁Tony
▁Timor
▁tier
▁delayed
kriege
beschäftig
▁labels
▁mor
▁ceramic
▁spürbar
▁substitute
▁Tiefe
▁GUI
order
▁Boy
▁kunden
▁globalization
▁luck
glaub
▁eligible
▁Simply
▁promising
▁sculpture
▁ECHO
▁genetically
▁Hub
schaulich
training
▁Arts
▁radiation
▁Stellenwert
▁allowance
▁Sechs
▁somewhere
verständigen
▁Script
▁oper
▁loan
▁congratulat
▁Ana
▁Chaos
▁Zeichnung
▁qualities
▁widmet
Pu
▁priorit
function
partnerschaft
▁Carlos
▁Helm
bereitschaft
▁fires
▁Resultat
▁Memory
▁GO
trade
▁argued
▁Care
Pi
▁profiles
▁realised
▁Unlike
▁(12
rak
▁climbing
▁earned
American
▁Six
tausend
▁gewohnt
▁secured
Auto
Sicherheits
▁Prix
reif
▁inevitable
▁ties
chart
▁themes
benfalls
▁Demokratische
bike
▁designated
▁Wasch
▁Swoboda
▁Johannes
ál
▁ausser
scht
▁besides
atori
▁bases
gefügt
chriftsteller
automatisiert
▁Technische
▁Poll
/10
▁Aufrech
▁gültige
leiden
▁Stor
▁Schöne
▁weiterzu
▁arriving
▁elegance
oberfläche
▁opponents
ader
▁Bet
▁accepts
plication
▁alert
▁younger
▁Major
▁Basic
zieh
▁helicopter
▁embark
▁Dream
ALL
▁1974
▁laying
▁loose
▁fatal
ämtliche
▁Hôtel
sgruppe
▁irgendein
sehbar
mina
▁diesjährige
oci
▁Aufstellung
▁Reh
▁shore
▁Pisa
onvents
▁composer
▁villas
/2003
▁DNA
security
ă
beobacht
▁Objective
▁vertraglich
medi
eigene
▁Heidelberg
▁panorama
▁noisy
▁boards
▁schönes
präsidenten
zaubernd
retariat
▁forums
▁Brust
acc
Gi
▁Barnier
▁Kel
herr
▁suspect
Programme
▁Pil
▁IF
▁washing
▁entity
▁93
▁shoes
schub
▁breed
▁Criminal
▁gaming
▁cam
▁Oracle
▁Priest
▁variant
wecken
▁hinterlassen
gewöhnlich
fri
▁Container
▁cluster
▁configure
▁cooperative
▁1973
treibt
▁Holding
▁Dün
▁clearer
World
▁enjoyable
▁Everest
▁punishment
ühle
▁avoiding
anto
▁Hil
TAL
▁Johannesburg
▁journal
ahl
▁retirement
glo
lehr
einsatz
pump
▁Wave
▁Ludwig
zed
▁Cannes
SCH
serklärung
▁Lunch
▁Grafiken
click
lean
आ
▁Diagnose
▁pave
▁Drink
ле
▁Vorgang
öße
uppl
auftrag
endung
▁Amazon
▁Mana
▁coherence
mara
erswo
ITE
-12
▁geograf
fung
▁feelings
▁delivering
▁tout
▁NT
▁voor
▁limitations
▁impetus
▁flower
diensten
▁Opt
Work
▁counterpart
▁neig
▁accountability
lekt
scan
▁ku
▁Wilhelm
bauten
▁fruits
opt
döl
▁resolv
▁lawyers
▁Alba
pur
▁mechanische
▁Late
ontamin
▁styles
▁Carr
▁Return
▁Fred
▁Dry
▁Garage
▁Mozilla
▁spannende
▁verify
▁suspend
frame
▁overnight
▁Trick
▁existed
▁Aussichten
▁Ansprechpartner
▁Kompon
indernis
▁contributes
▁scenes
VIS
▁disregard
▁gemeldet
▁Step
ifiziert
▁Bulgarian
▁stimul
▁ALL
▁engagier
▁89
wirksam
▁legte
▁Orchestra
IV
▁unverbindlich
▁familiäre
phi
▁Buchstaben
jar
▁Bewerbung
▁gradual
▁authorized
▁Acc
Film
▁Cube
▁Flasche
▁Neuigkeiten
▁serial
▁outlined
▁slaughter
▁Dubai
▁adidas
▁Baroness
▁cathedral
▁bemerk
forderungen
▁verwandelt
▁socially
▁databases
▁Kro
▁panels
ж
Per
▁Sofia
▁continuation
▁systematically
▁Schad
Min
cl
▁democrat
sorganisation
▁Mare
▁Stream
▁inevitably
▁Course
▁Dolomiten
▁Kant
▁Sender
ffizienz
▁toxic
▁Spirit
▁Hass
ì
▁Paradies
▁multilingual
▁sto
Mon
brand
▁awards
▁Lux
▁Serv
rüch
▁extends
▁fundamentally
▁Deal
tscher
▁energie
Mitglieder
▁petit
▁legendary
▁Conservative
prüft
▁Fertig
▁med
Pre
▁Vortrag
▁attraction
nutzen
▁Prestige
vice
▁hybrid
▁HTTP
▁Ausstellungs
▁Olympische
lasten
▁kriminelle
▁Castro
uce
▁Ash
▁Lad
▁Tax
▁Stütz
▁anmelden
▁Translation
▁Airways
scheinend
▁repression
▁cooling
▁compatibility
▁dumping
▁Haltestelle
very
▁motions
▁dogs
sformen
sdaten
▁beautifully
ündung
▁clinical
▁selbständig
▁Tam
▁blocked
▁tolerate
▁Schadens
▁kompatibel
▁Möglich
▁racing
▁CAD
▁assessments
doppel
herz
▁Morgan
▁Awards
▁128
▁skilled
dient
anstalt
▁Kunstwerk
▁explanations
▁schade
▁prohibit
suing
▁attentive
▁''[[
▁Schön
strecke
regende
▁Markus
▁Title
kod
▁Affiliate
▁vacuum
risto
http
wahrt
▁inne
▁execute
▁detection
▁depart
▁capitalism
▁refugee
▁gelegentlich
▁carries
▁Songs
beginn
▁gathering
▁Administrator
▁77
▁Franco
mäßigkeit
▁Bangkok
connect
▁descend
▁Haag
▁schreckliche
▁Hotelzimmer
▁bewahrt
geprägt
▁wunder
charge
▁Abreise
▁Lö
▁Lip
▁Laufzeit
▁heruntergeladen
ión
wacht
▁einzustellen
▁Jahrhunderte
▁Tipps
▁ausgeliefert
wählt
lekommunikations
▁wound
▁Löhne
lessly
algorithm
▁libraries
▁Umfrage
ikle
▁Rundfunk
wörter
▁geschäftliche
▁beauftragt
ucci
▁Jordan
▁Count
▁Kolumb
▁mieten
▁complaint
▁Č
▁Annex
PU
▁Christians
▁Hospital
▁Angola
▁solving
▁Besichtigung
nese
bahnen
looking
sitzenden
▁predecessor
▁Disney
Management
▁handed
video
▁Resource
00,000
beauftragte
verleih
▁gestr
▁kommun
▁HOTEL
▁interference
▁Yo
rohr
▁classification
angehen
mol
ektor
▁criterion
ifies
▁Urban
▁activate
▁Musk
iertes
▁Gift
▁mächtig
▁convincing
schulen
boy
Fri
integration
▁walks
▁painful
▁horses
▁Lamanite
▁Leiden
▁fehl
▁dreams
verstand
▁Strassen
▁Chechnya
▁globe
▁97
▁Lady
▁Später
eizig
kennzeichn
önt
▁belastet
▁innocent
Kon
spanne
▁cake
enseits
blog
▁Netzwerke
▁bedient
▁openly
vage
▁Messenger
ieve
▁writer
▁Met
Markt
▁deeper
▁isoliert
▁mood
fotograf
▁Riesen
gängen
zell
▁Zealand
witz
▁attempting
▁Volkswagen
bemüh
▁wü
▁Lyon
▁RAM
▁(17
▁Dog
▁Ideologi
▁Vegas
▁expire
Präsident
▁sozialistisch
▁Börsen
▁Cent
ORD
achstums
Unter
▁distant
▁instability
scheibe
sstandards
▁zukunft
▁Scho
▁behold
only
Zeit
▁globally
fehl
ündet
▁Stephen
▁Chris
▁Substanzen
cam
abgabe
stitutionelle
▁Auskunft
▁exceptionally
▁Begegnung
▁Andrew
▁ferry
▁Bestr
▁weitest
▁vente
ierungsa
rechnet
▁betreibt
cycle
▁Schnittstelle
▁Dy
Sol
▁feels
▁Privileg
▁Texas
▁Solange
▁locally
▁Egal
▁gezielte
▁Zentr
▁Lee
ridge
▁Fun
▁procedural
find
▁contra
▁Thor
freunde
▁photograph
flugzeug
▁Vermögen
▁shooting
▁installing
▁Verschmutz
▁thirty
cultural
▁Abgabe
▁Individu
▁successor
hielten
▁gel
▁Fur
1/
▁supranational
▁courtyard
▁bö
▁coastline
▁meter
▁subjected
umfang
▁Liter
▁Gesch
▁Punta
pfleg
▁Stockwerk
crat
▁Athen
▁Inanspruchnahme
▁cruise
▁berührt
lehrt
▁vorkommen
▁Arabia
▁getreten
▁og
▁hübsche
▁practise
▁Kühlschrank
▁Quartet
▁indirectly
NY
▁RS
zicht
▁personality
▁Schokolade
Eleganz
▁architect
▁Anton
lah
▁Egyptian
▁Etagen
▁remedy
kristall
▁Snow
▁salon
aid
präg
▁WHO
▁activated
sitzende
▁comforts
▁konservativ
zufinden
▁schi
elang
▁resumed
▁orientiert
▁Py
▁hopefully
▁Political
lap
▁hinausgehen
▁Minder
▁conservative
▁swim
Region
▁Erleb
▁har
heizt
geschafft
▁Cover
MM
▁vorausgesetzt
▁limitation
maker
▁reinforced
▁trap
▁Raumfahrt
▁SU
▁Rap
▁veranlasst
▁Magazine
4-01
▁Fat
atik
6)
▁monatlich
rier
▁Turbo
tiefen
klav
▁Jh
irland
▁Clo
▁ph
▁bears
▁rhetoric
register
4-00
▁\
apparat
▁simplified
▁entities
▁Termine
gebildet
▁Trocken
▁Südost
▁divers
▁telefonisch
tums
richter
zins
versprechen
▁Bündnis
▁ASEAN
▁86
technische
anja
▁alien
▁Canadian
▁aluminium
▁detention
▁birthday
9.00
▁Franzos
▁verarbeiten
telli
konsum
▁possession
▁mad
▁confidential
▁69
Modul
▁Machen
▁Medium
▁waves
▁borne
▁Jacuzzi
▁laptop
▁Erdgas
▁quasi
wache
▁Gerne
▁verhandelt
▁SOL
▁360
▁unbegrenzt
piste
▁Werde
ERT
▁reviewed
control
σ
rai
▁haftet
bedürftig
▁Mé
▁sincere
▁collections
mill
oire
▁Bak
zentr
▁Angebots
▁Parc
▁Intensiv
Uni
▁HE
greifend
äufig
▁Crew
▁festgehalten
ń
▁refusal
▁grain
▁tens
▁dependence
▁abstained
▁Ausser
einhalb
äumt
▁beliebtesten
ní
paid
▁Algeri
▁gedruckt
▁advertise
▁beherbergt
▁Rücktritt
▁fragile
git
quar
▁sleeping
ulu
▁backed
galerie
▁jazz
zeugt
▁disastrous
bergen
birg
▁Gesetzgeb
▁energies
▁robots
2/
▁Tibetan
RP
registr
▁assign
▁Nepal
▁Kha
vig
▁selecting
▁Geschäftsführer
direktion
▁syn
▁slave
▁konstant
▁donors
▁ruled
▁rarely
uti
▁IGC
▁Fertigungs
▁Sozialist
▁invites
genheit
▁fö
öten
▁Cotonou
ц
▁envisaged
Pri
▁Cast
▁cook
▁newest
▁2%
mari
▁Sofort
osis
▁Bologna
fold
▁Telefonnummer
▁Erika
LV
käm
Ökonom
tätigen
pixel
ти
▁breast
▁mächtige
350
▁Vieh
COS
bleiben
▁OP
▁marking
/00
▁Gibraltar
▁furnishings
KK
▁Workshops
igi
kus
ONE
▁landing
▁gases
schädig
▁Cyber
▁gun
▁restrictive
▁conform
▁reasonably
▁10:00
▁umfangreich
▁analyse
END
▁Eurocopter
▁Magnet
wurf
▁Quadrat
üße
▁beweist
▁71
▁interpreted
entwickeln
▁ya
HE
Bus
▁Verbund
▁endanger
meist
▁Einbindung
aco
▁forming
▁gründen
▁Train
▁consolidate
lai
urri
ulp
▁adequately
gestalt
signal
▁Signale
amba
▁Posse
▁YOU
▁helle
▁judges
folgen
▁Manuel
▁determining
▁entrepreneurs
▁Solarium
▁Phasen
▁thereof
▁Taschen
▁Zoo
▁backup
▁LI
▁Importe
bay
▁Polo
tigt
rkrankung
ppo
▁conscience
▁Patient
▁Bag
▁Verschieden
brannt
▁psychological
mangel
▁erbracht
▁Reifen
▁Gegebenheit
liance
content
▁stating
anche
wandeln
▁Trust
▁stipulat
claim
lá
▁Atlant
▁topical
udiovisuelle
▁Unbe
▁shame
▁elect
bogen
▁Nie
LICH
▁Commander
firma
▁Fassade
▁Nova
▁Gastronomie
▁constituent
▁fortgeschritten
Air
▁Environmental
▁geräumig
▁wishing
▁Ged
▁viewing
▁MIDI
▁aut
▁besichtigen
tek
▁Monitor
Angebot
▁hosting
phil
▁ceremony
▁pitch
menschlich
▁gemischt
▁technically
aturkatastrophen
Not
▁erforsch
▁Zy
Nach
geführten
standort
▁(7
▁PXI
▁Type
▁invasion
▁subsidi
▁juristische
▁Muslims
330
▁Subjekt
▁russisch
▁altitude
▁Aparthotel
wirt
▁erfassen
▁Want
▁kick
▁terrain
Typ
▁Materials
▁infrastructures
▁query
▁Linz
iest
(2)
▁distinctive
▁graphical
stift
▁tailor
CU
▁Steel
▁abilities
▁cotton
▁Vergütung
)|
▁Ethernet
▁qualify
▁healing
▁hazardous
▁devote
▁backward
▁conscious
nkel
[[
▁Freien
▁Präzision
ody
▁beside
año
▁Unless
▁Rou
▁minibar
▁Athens
▁Komponente
▁validity
eiler
▁simul
grä
▁Volumen
gebunden
▁catalog
▁Days
▁PVC
▁preference
▁Enter
▁immerhin
▁filters
▁drain
▁Gelt
▁verletz
▁matches
value
einrichtung
▁nearest
▁Diesel
liege
▁harmonised
ло
▁Attr
patri
▁Schwierigkeit
Reg
▁Gramm
eurs
geh
geteilt
▁Arn
force
▁disclose
▁1977
▁Klage
▁scr
▁gewis
▁vertrieben
▁precondition
uter
▁Electric
▁Solidarity
▁scrutiny
▁heaven
high
hart
tsche
helm
mischt
▁hub
Box
▁Bundesrepublik
▁Moral
▁breaking
Lösungen
▁MAR
▁Bath
▁autonom
▁vendor
▁Ökonomie
tax
▁droh
/2004
▁Begeisterung
▁Twitter
▁Toilette
▁gewerbliche
▁ersch
oppl
▁Auswertung
▁distributors
limmer
▁Medina
▁customized
▁Birma
▁Scott
▁Stich
klapp
▁Cruz
▁depict
kow
▁Unruh
▁pie
▁Mehrer
indung
räte
▁civilians
▁scanner
▁barbar
▁speaks
▁Pers
▁eingeben
▁delle
▁Verknüpfung
▁Nachteile
Benz
nwendbar
▁9001
▁Kru
gne
▁Blanc
nennen
▁affirm
▁Lift
▁pad
▁interven
▁professor
▁melt
▁dictator
▁muscle
rüst
▁wag
tradition
▁Especially
▁securing
▁examining
▁herself
▁barrier
▁advances
ograph
▁1969
ová
▁katastrophal
▁osteuropäische
▁AF
ünd
▁bags
▁charmante
4-02
▁illumin
▁crack
▁advised
feier
▁Landschaften
regional
Mediterranean
▁dear
▁enrich
▁situ
▁3.5
streck
▁verlier
lijk
▁palm
▁sensitivity
▁chronic
▁Sänger
▁remark
öchten
▁bon
HER
process
▁Maßstab
▁Lese
camp
▁Dick
▁inkl
▁Elementen
olkest
morph
▁Fel
tümer
▁Chianti
prim
▁cellar
▁veränderte
▁kühl
▁supporters
▁Kla
erinnen
▁bedürfen
traut
▁formally
▁carriers
▁civilisation
▁neuro
▁SIS
▁Steinberg
rimär
▁trug
stimmungs
▁FREE
▁brush
weih
▁tries
▁Bruch
▁Dossier
zielle
▁abuses
▁entlassen
▁1)
▁Natura
mé
▁Bond
▁adjustments
öhr
▁prejudice
▁unanimity
▁Orchester
▁Nothing
▁Rei
etc
▁Lettland
▁classified
▁grey
▁Cell
lec
▁identisch
tmöglich
▁Naturschutz
▁Equal
▁delivers
pok
▁Whilst
▁audiovisual
▁democracies
▁thermo
▁Male
▁Disc
▁var
▁2.2
Frei
▁Brau
Cor
▁Unterhaltungs
▁annually
egenwärtig
▁associate
▁verteilen
▁safeguarding
festival
BU
▁Kongo
lebens
▁Giovanni
▁SEO
▁posed
365
▁informative
itsch
präsentiert
ografie
▁Ramblas
▁Internetseiten
portal
▁Leader
▁Villen
▁coins
äusch
▁assignment
▁Ausschreibung
leitungen
▁Passagier
▁Souvenir
▁Written
▁Thro
▁repressive
▁preservation
Moldau
▁Somalia
▁Hö
ő
▁Little
▁verweigert
▁Genu
ummer
trip
/2005
▁Lieder
unterschied
▁Monaco
▁harsh
HD
▁Cafe
wäsche
▁modification
▁Author
jou
▁Dolme
issi
▁Plant
▁Born
▁arises
▁Zeitungen
▁surgery
▁shelter
öder
▁corporations
▁Zeile
▁Spec
RAN
▁interfaces
▁Wiederauf
▁Eich
▁Philosoph
▁medicinal
▁hypo
én
▁Heilig
▁cliff
▁Slovak
▁anyway
▁ewig
säure
▁consolidated
▁reader
TL
▁Schwerpunkte
▁Pala
▁unbekannte
▁gehörte
▁jed
ardo
▁strain
▁mega
▁UPS
AK
lauter
▁Popular
▁heil
▁SSL
▁IND
schriften
onda
▁integrating
▁worried
mpfung
direktor
jö
ishing
▁PM
▁mache
▁universelle
gezeigt
▁Porsche
opp
hebt
▁Nav
▁81
▁hie
precher
strand
▁MAN
▁Newspapers
▁diameter
▁pursuit
▁Manchester
Plan
ikanische
▁ageing
▁GT
št
fährt
▁perceived
bid
▁Florida
▁Learn
human
▁dismiss
▁engineer
brems
▁kulinarische
▁Prognose
▁Kö
▁Datenbanken
▁Kolonial
xo
histori
divid
▁loaded
ahrung
▁forecast
arri
▁Chancellor
▁architektoni
plica
▁Gua
▁Handhab
▁accompanying
▁galleries
▁traumhafte
bür
▁Eur
▁Marie
▁paradox
WS
▁Mercosur
▁memories
▁wisdom
▁Photoshop
▁marble
▁WiFi
▁Umw
▁cater
▁Cool
pay
TEL
▁Schweig
ohesion
▁Rinder
▁verweist
FOR
▁pushed
gerichtliche
▁verpass
▁Que
▁Sydney
▁Consider
▁Zweig
▁'''
▁wished
▁voices
▁Seattle
▁sympathy
▁cereal
▁Erdgescho
▁merger
▁souverän
▁comfortably
▁breeding
▁render
▁boil
runde
▁inviting
AE
▁AP
führ
OSS
kular
▁Iceland
▁abstract
FP
ри
technischen
▁Harry
cogni
▁renovation
~
langes
dumping
▁protective
Verfahren
tail
geführte
▁frustr
▁plates
▁Akteur
▁obstacle
first
hack
▁Pub
▁förder
▁explosion
▁Disabled
▁Lack
financing
▁tonight
moral
groß
rina
▁queries
▁Kapitalismus
▁Einleitung
▁Rep
▁DVDs
vocation
▁monopoly
▁Petersburg
▁Schweine
PORT
geschäfte
▁Contract
effective
▁Seven
▁mus
▁Kalk
bing
▁Castel
AGE
▁Freundschaft
▁Kosmetik
▁bestanden
▁EA
▁irrespective
▁fold
▁studying
▁Emotion
▁Impuls
▁Studies
▁Think
▁secular
wear
dine
▁Til
▁komp
▁menus
ρ
▁banner
▁Billig
▁geführte
gestanden
▁persecution
▁injection
▁cattle
▁Lied
Club
rzem
▁linking
Netzwerk
jon
itive
▁Mittelalter
▁Guantánamo
yu
▁physische
▁Richtigkeit
▁Dikt
▁tv
▁symbols
▁Comfort
hänge
ony
▁commence
▁gescha
▁Dell
▁transported
▁initiate
kind
terre
▁untergebracht
owjetische
möglichen
baut
▁vibrant
▁affair
▁honey
▁Creative
ço
theater
▁persistent
defined
▁rush
kleb
▁accessed
pec
▁hyper
▁unterrichtet
▁communist
▁immunity
communi
motiv
▁rebuild
Gesetz
▁Santo
tikal
stimmig
▁Looking
▁exotic
üpp
lösch
fusion
friedenstellend
▁Race
▁simulation
▁Gletscher
▁Störungen
themen
▁Gehäuse
BG
▁Verpackungs
9|
▁Plä
▁definitiv
▁loyal
▁stones
uropä
▁explizit
carbon
7)
▁Armenia
AND
▁aiming
▁revolutionary
sound
▁pillars
▁Naturpark
▁strikes
▁Neither
▁angemeldet
▁dramatically
conditioning
▁Police
ч
▁Epi
▁jet
▁kenne
▁bir
freundlichkeit
▁Aussteller
▁Gedanke
spät
▁nightlife
▁carpet
schmelz
▁enthusiastic
▁Style
ruhen
uliert
▁inherent
▁Rail
▁Periode
▁govern
Site
östlich
▁deciding
▁Alma
weichen
▁Betrachtung
wachs
▁Sisko
▁spec
▁Italienisch
▁graph
heid
▁Trepp
▁schwache
▁renewal
▁Being
äuber
▁strafrechtliche
▁ordnungsgemäße
▁threatening
▁Phil
Ga
▁Alan
▁Tuscany
▁Unix
vote
▁Mitarbeit
▁Lac
Tri
▁Präz
▁Funktionsweise
etwa
▁certificates
▁Isol
▁populist
▁Teilnehmern
▁pol
▁Boots
▁Canary
kademische
verändert
tätigt
pes
ettering
▁inappropriate
▁origins
zh
▁fabulous
▁Reis
▁samples
▁bands
▁demonstrations
standes
▁Fabr
▁muslim
though
third
DN
▁benach
eigenschaft
▁seller
▁derivative
▁reactions
GS
***
▁(11
▁Anyone
monstr
marken
quel
▁tensions
ierbare
▁gaining
▁Atem
▁Uganda
▁Otto
▁Hilton
merge
stufe
etränk
▁Schein
▁layers
grat
▁pretext
▁Klinik
▁brake
▁endorsed
fühl
▁curve
fici
▁mysql
▁anzusehen
▁Träume
▁Adressen
wollt
▁Norman
lux
FX
▁zoom
SU
▁Ara
Vol
▁triple
▁visas
▁Klavier
▁Democracy
▁violate
OUR
▁smallest
▁electronics
▁Xi
▁73
beteiligung
▁Hague
lien
paar
▁kommunizieren
▁landmark
▁problematic
▁CIA
▁kopieren
modal
5,00
LDR
trägern
kanen
▁lernt
phor
▁Temple
▁Feucht
legislator
about
▁Bayern
▁Lenk
▁Along
▁79
presse
▁Promenade
▁adjacent
cola
▁witnessed
ambo
▁Soll
brü
▁commun
▁Rich
▁weitergeh
▁criminals
▁Vergessen
▁cigarette
▁Heiz
▁tendency
katastrophe
▁Keep
▁complementary
▁Jury
▁sheep
Um
▁counts
▁kümmer
▁Zeilen
▁completing
▁Eta
voir
▁CV
schlepp
▁Müll
▁sinken
▁220
▁LabVIEW
▁bubble
▁locker
▁Fels
Restaurant
loch
▁Albanian
▁erwarte
▁Herzog
▁Ausbruch
spritz
dru
▁elektrische
▁Malaga
▁guilty
▁Inside
▁Dark
▁Fran
▁Lein
▁Rev
▁2.4
▁incomes
▁Recently
▁Seminare
▁limiting
▁YouTube
▁Jem
▁Follow
spektrum
го
▁Philip
▁errichte
▁stimulus
stattet
▁ausreichen
▁Dé
▁Had
▁Verschuld
▁qm
trenn
allo
▁ruins
öffnung
liff
tätig
bleib
▁diminish
▁aboard
▁fireplace
▁safer
▁holes
▁entstehende
puis
ffel
▁Screen
▁container
borg
▁1972
▁Edward
▁modernisation
technisch
▁rice
▁hunting
▁literally
▁Alltags
gebirge
▁reign
▁Erb
▁illness
▁Twin
▁pointing
iebig
▁Official
▁disabilities
▁Montreal
▁MEDA
tädtische
▁accomplish
▁fastest
INA
▁reaffirm
kolleg
alphabet
hindern
▁marina
elekommunikation
▁popularity
▁variables
.0%
▁reside
tronic
▁nad
faser
MU
gelegene
▁Potsdam
▁unexpected
▁Teufel
füllt
▁instructor
▁Vitamin
▁verb
▁PCI
vall
▁casual
▁Asset
▁erbringen
Upon
steine
▁theater
▁besieg
▁74
▁protests
▁bulk
▁Tiger
об
▁imagination
▁chef
▁Sz
ompatible
▁Hal
▁recital
▁dokumentiert
▁deployment
▁wrap
▁Zuliefer
gol
sarge
▁beeindruckend
▁Süß
▁Abweichung
▁costly
▁Quant
Institut
usa
▁Wanderungen
trittsk
▁Akademie
ró
betreiber
▁Informatik
▁buffer
▁fridge
▁couples
▁Rechtsprechung
hod
▁Nationalstaat
▁Reden
▁retro
nwalt
debate
präsentati
ologisch
segment
▁feiert
Pass
vorgang
▁Record
▁entfalte
▁advisory
▁deadlines
heuer
▁stattfindende
▁Lufthansa
▁zubereitet
▁definitions
ernichtung
▁Magazin
TY
▁assessed
völker
ütung
▁php
▁woods
▁Warsaw
▁durfte
sfrist
image
▁Koloni
▁corridor
igem
Wie
schild
▁realm
orrupt
Book
▁vorange
▁flora
Line
▁у
Verschlechterung
▁SilverFast
π
Broschüre
▁präsent
ECT
▁identifying
▁Weich
▁broadcasting
▁reservier
▁grundsätzliche
▁Thi
Exp
▁Pause
oga
blü
▁Corp
▁befrie
▁einladend
▁Anfänger
▁erneuert
hütte
count
▁Überschwemmung
▁boast
bewegungen
▁Strafe
▁Eingangs
ausrüst
Europa
▁Grä
▁Date
situationen
▁Belang
▁baggage
▁precedent
esta
▁interventions
Datenbank
▁Aufsichts
▁hunt
▁Additional
abschätzung
▁Modus
lieu
▁Khan
▁readers
ühlen
hergehende
▁Keramik
▁dairy
▁tasty
gebung
▁ideology
▁aux
feucht
osta
▁Harmonie
▁Flagge
▁clinic
▁portable
▁festivals
▁Meilen
▁Besser
Anwendungen
▁Adel
geholt
IER
▁Vierte
▁Finn
▁conceal
▁Zelt
▁verlänger
▁très
▁wanting
End
platte
cina
▁Chair
▁schnellste
lehrer
reißen
▁pricing
......
▁fundierte
▁Oliver
▁submission
▁BAE
▁divisions
▁traditionally
▁Setz
rupt
▁Feedback
▁trauma
benutzer
▁licensed
▁priest
▁Gehör
▁Petr
▁modifications
ossa
▁imperialist
▁Extrem
▁Users
rchäologische
▁kompetent
▁Steck
ddy
lander
▁rolling
call
▁Chrom
▁städ
▁Schal
verpflichtung
▁concludes
▁DB
rico
Nord
▁yang
▁psycho
schritt
▁verwandeln
▁gourmet
▁motivation
▁legacy
▁ausgebildete
data
▁Wine
▁imperial
▁unified
vereinigung
▁reprodu
▁chip
börse
▁ggf
antwortung
▁confidentiality
ми
▁developer
worthy
bten
▁Säu
▁Patri
hinter
▁**
täglich
arbeitet
unterricht
▁shoot
▁Kei
▁snacks
▁untersagt
▁seltsam
▁Cape
▁Valentin
keeper
lak
▁reichlich
▁promenade
▁Scandinavia
▁Veranstalter
▁Römer
▁Trinkwasser
valu
lieb
▁sinnvolle
rij
title
▁femin
▁Dampf
▁painted
▁XVI
▁kana
How
▁jewel
▁Verwend
▁spreading
ontingent
▁nütz
▁Pot
▁forestry
▁Commun
▁Schar
grav
▁conditional
UEN
▁retreat
▁loop
▁sums
▁attacked
▁austerity
▁Wandern
▁fortress
▁timing
usse
▁Langen
▁breaks
zögert
▁Brems
▁Brücken
zoo
▁phenomena
▁Georg
▁Mü
kommunikation
piece
äne
▁spam
▁Statement
▁drum
RF
geladen
ер
▁Aufpreis
▁sul
▁underpin
▁Infos
▁Toten
küche
▁Begleitung
▁Raf
hemm
▁consultations
sprüfung
▁1940
troffen
▁Auswärtige
▁tracking
▁exploited
▁crown
▁Side
höhl
▁Gewerbe
▁Fine
▁proves
▁Etage
srunde
▁Gehirn
▁Cardiff
CON
räder
▁unite
▁rip
▁farb
▁Pho
▁gä
▁Schall
▁bird
▁Synergie
ла
▁aufrufen
Hu
freundlicher
äge
▁Hochschulen
treik
▁Speziell
▁Monument
treff
▁fibre
If
▁retained
RL
▁bull
ACE
/2008
ppi
▁temporarily
▁PayPal
eitigkeit
konzert
minuten
TRO
▁Rho
iso
▁ost
▁encountered
▁dioxide
▁94
▁detailliert
▁oasis
issa
▁ranking
kopier
▁Dolomites
wartet
▁systematische
▁Skla
▁Ansprüchen
lou
konvention
▁Turin
▁Reservation
chair
▁donor
▁(9
▁posting
runter
▁Whatever
▁Perfect
pliziert
▁Slav
▁estimate
▁gambling
▁powder
▁exacerbat
▁gesendet
▁anstehende
hua
▁ecosystem
tino
▁Vorstands
fight
rica
▁echter
▁Found
▁pole
▁dekor
famous
tler
▁refreshing
▁Cancún
alla
cino
▁indications
westlich
▁broadly
▁Welle
▁terminate
ssive
▁Hack
▁oriented
▁Räumlichkeiten
vali
▁Spielzeug
pid
Seiten
▁behave
koch
▁Thermo
▁signifikant
▁nachweis
▁Publikationen
▁bass
▁†
▁delegations
▁Motoren
steck
heimische
brief
▁textiles
▁Controller
▁Harmon
stattung
▁synchronis
kämpfe
▁Trib
▁Feiertag
▁Limit
▁Buy
▁Roboter
▁Century
▁Jens
wor
TUR
▁142
▁pushing
mai
▁incl
▁Embryo
busse
▁crop
▁clauses
▁instruction
▁enemies
▁comprise
▁serb
▁Sella
PRO
▁Lü
▁dryer
bird
Best
▁Fische
Stand
Verhältnis
Mittel
ERS
▁propag
▁Photos
kre
▁County
VM
tägige
▁10.00
kinder
▁Wai
▁Task
gemeinde
▁Kondition
gespräche
▁2)
gespielt
▁1.3
sicher
▁entspannende
ersuchen
▁Leer
ollabor
angle
mask
▁Krim
▁trials
▁Competition
▁Repräsentan
▁Blo
▁vague
▁speculation
betrieben
äst
▁Jun
▁Hochzeit
gewä
▁exempt
▁Ambition
▁enhancing
▁veraltet
▁Öffentliche
lí
▁Gender
▁Lade
besser
▁Gras
▁responding
▁AVI
▁DES
▁Stolz
▁Rakete
▁restri
willigung
▁Gutes
▁fach
▁Bogen
uzz
Sta
▁PER
▁Ähnlich
UI
▁WM
▁Aktivier
▁Luka
▁(14
plant
▁öf
▁Vall
tempel
Point
OG
ruchtbar
ÿ
pie
▁theoretische
üsse
läng
▁Rotterdam
äub
▁einrichten
▁outermost
dium
▁confirms
▁Automatisierung
▁relocation
Name
▁responded
sprüche
▁q
▁incidents
tube
ächtig
▁console
▁Save
dev
▁FTP
▁recruit
▁english
▁Arafat
▁Sandstrand
▁organs
▁befa
▁shaped
▁screening
lü
sache
reift
rake
▁bathing
▁embargo
ämme
▁thou
▁rag
▁assessing
▁democratically
legte
Programms
▁offener
DL
controlled
plate
klassi
qualifizier
winning
▁municipal
▁pit
▁gesture
▁Prima
▁pré
▁Voice
▁Estate
▁Assistent
▁Öffn
▁holder
▁affiliate
▁nest
▁vegetable
servieren
herrsch
▁Martini
▁Horizont
▁Bestehen
▁captured
UST
▁mounted
▁Cit
▁Toskana
▁neighborhood
▁Hit
▁portray
▁Croatian
▁Konzeption
▁Vorgänge
▁Gedenk
▁Five
ächte
▁ausgenommen
fro
▁konkurr
▁Flora
▁Session
▁gep
▁Sieger
bewusstsein
▁Flucht
rahm
pho
▁149
▁Zoom
▁preserving
▁impressed
▁qual
▁Darau
▁Vollständigkeit
▁playground
▁Skanda
ammen
ält
▁sq
ylinder
WO
Wald
Dokument
▁Kletter
mö
▁burning
▁leu
zufriedenheit
generier
lord
▁verz
maßgeschneiderte
▁erzählen
beispiel
▁Body
▁volumes
▁stieg
▁wundervolle
▁pragmatic
wurzel
Krise
▁Starfleet
hob
▁Property
minded
▁Gad
▁wähl
▁conducting
▁brick
kie
▁evaluated
onkurrenz
▁Tau
Herzegowina
▁Singapur
▁Mitwirk
fürchtet
▁cult
▁Häusern
reflex
▁offensive
pflichtig
▁Workshop
▁genocide
▁Illusion
▁continuity
Station
corp
shire
▁Doktor
▁Angestellten
▁seekers
schrank
▁kombinier
angemessen
▁Father
▁Profile
▁Base
ppa
itat
▁Sud
▁к
▁batteries
empt
ordet
▁bunte
Histori
▁Universum
▁aufregend
▁treu
▁möge
fast
▁Ferrari
▁multitude
▁injury
▁Jacob
remo
oxy
▁understandable
maße
democratic
salon
hammer
bte
▁prima
▁optimize
▁Kleine
gard
▁ANY
▁Beautiful
▁Scientific
▁Challenge
▁retention
▁diplomacy
▁84
Tur
mouth
▁anschauen
▁Auszahlung
OST
▁Inland
linux
▁PHARE
▁Recycling
▁ThyssenKrupp
▁Chirac
▁harmonious
▁(13
Can
baute
Facilities
">
▁Parking
▁activists
▁Thessaloniki
▁Spock
▁conven
▁Frisch
byte
bettzimmer
▁Nenn
▁gesteuert
▁thy
▁Eiffel
pia
angriff
▁tags
▁slight
▁Beschränkung
▁krank
See
urcht
▁dropped
gressiv
▁männlich
ś
▁Biotechnologie
▁Eure
▁erledig
▁Self
tif
▁exc
▁imbalances
▁Francis
▁Astrium
▁bargain
▁macroeconomic
unterhalt
cchio
▁entnehmen
MER
мо
▁weakness
▁statutory
Fu
▁Turk
metri
CAM
▁verzeichnet
▁Freiwilligen
dach
chwäche
/2000)
▁Unabhängig
bänd
▁align
▁Warte
▁Fahrzeugen
▁Hund
ugh
▁launching
▁Nine
▁ungewöhnliche
institute
▁Vital
▁Gourmet
▁mortgage
▁visibility
Au
▁Bald
▁purchaser
▁SIM
150
▁Liechtenstein
ahm
▁eggs
stellvertretend
haut
▁Überw
▁Wellnessbereich
▁gran
sumption
mbra
tungsbereich
▁lodge
▁trendy
▁closest
hall
verträglich
Mobil
▁commodity
▁elaborate
▁87
ccio
▁grande
katalog
Wert
▁Economy
▁Scottish
▁destabilis
▁Trainer
vorhersehbar
▁varying
Konferenz
NER
ständ
▁lip
▁mature
▁privileges
▁quoted
▁Warm
▁Fortunately
▁Nat
▁solarium
▁solidar
▁delightful
ř
▁floods
▁bugs
ICH
▁Napoleon
▁Zagreb
▁Snowboard
▁Kau
wingt
▁settlements
ungssystem
▁municipality
▁recreation
▁Wollen
▁deliberately
▁Gedächtnis
▁reif
voc
▁punish
▁tongue
▁schaden
▁Activ
pire
▁preiswerte
▁Salvador
▁economical
berater
▁Doctor
▁Hydro
Rule
▁massiven
hose
▁2.6
{
stellte
▁Laptop
▁empfehlenswert
▁klinische
▁formulier
gesetze
Stat
▁Überarbeit
Dienstleistungen
San
ilitär
leare
ianische
▁Ankara
gesetzgebung
▁Bäder
dina
▁Andalusia
▁hoping
month
▁Organism
Fahr
▁Upper
Ziel
▁applaud
malig
kenntnis
bowski
▁resultierende
▁1965
Kamera
▁Ever
unterstütz
▁Create
AIDS
▁horizon
teams
positionen
speaking
cost
▁Geistes
▁lending
▁portrait
INE
klicken
▁inspections
▁1971
▁Beau
▁Rhe
aunen
View
▁biologisch
▁Erlaubnis
▁WordPress
▁eager
▁Motorrad
▁juristischen
▁Reb
vollzieh
▁mé
▁überschreite
▁Catalunya
▁generating
▁Standorten
▁roten
▁vul
▁Antriebs
▁Beleuchtung
▁Infineon
▁coordinating
▁Equipment
ciones
▁viruses
chy
▁hosted
3/
▁Kok
▁gesundheit
▁forever
▁eliminating
▁Corbett
AST
häuf
▁Lii
▁fulfilling
taking
cookie
▁gepflegte
may
▁friendship
▁Zielgruppe
▁Drama
▁Wassersport
▁Aufzeichnung
▁Kuch
unternehmer
telligen
▁Kurdish
▁Mercure
▁defect
that
▁Independent
quil
▁Stücke
Plattform
tank
▁kW
Term
▁corrupt
▁kingdom
▁oven
solution
0.1
▁tariff
▁Liga
guy
cate
▁Olympia
▁cottage
▁illusion
glia
arium
▁erhielten
▁safeguards
elect
Bra
▁Table
datenbank
▁legendäre
▁quarters
ме
▁Rapid
▁Empfangs
ächtige
▁placement
Kinderbetreuung
▁experiments
▁Kommen
private
sunken
mächte
▁MEP
▁foodstuffs
mittelständische
▁Buyer
Claude
▁Maler
▁gefüllt
▁vermiss
reichert
ème
▁feasible
▁patron
▁Brenner
wandern
▁Magi
▁Lamp
▁Klon
▁Trip
▁stresses
schon
UE
В
▁overseas
▁organising
▁wholly
▁Bernard
▁Pferd
▁Quite
▁Pisten
tv
▁civilization
diskriminierung
▁Cava
▁optimist
▁glacier
▁teeth
englisch
▁acute
▁spezifi
HC
▁interfere
▁Spani
▁laundry
▁mitzuteilen
▁Mountainbike
▁Paragraph
sprachige
▁Paint
▁bro
zeichnet
▁lifts
fördern
▁Nahrungs
▁Harris
▁Jar
▁Sperr
▁750
▁elementar
Vo
▁Langzeit
▁chips
▁canal
▁CAR
▁nerv
▁freundliches
▁Verschie
frequenz
▁regain
▁stören
▁plat
▁anchor
▁effizientere
▁emotions
▁reminded
buchung
▁Ausländer
▁experimental
▁successes
▁Crown
ов
▁viol
▁lifelong
▁attending
▁capitalist
▁5000
▁Adress
uble
▁Archer
töne
▁QuarkXPress
tique
▁1.4
stürzen
▁accompany
▁Christus
▁aufgeteilt
ć
▁unauf
▁unkompliziert
▁magazines
räum
▁Immo
▁Mask
KI
International
ISA
▁erfahrene
▁collecting
▁Carlo
▁Exemplar
▁[1]
▁precautionary
▁Kenya
eilen
rash
▁arena
trennt
▁Cleaning
kanische
möbel
▁11.00
tasche
▁stainless
▁anymore
▁directors
trächtig
▁Deco
▁Secure
▁2.1
body
▁numer
▁compiled
NX
problemen
urch
▁Franc
▁Josef
▁Dienstleister
▁Laundry
▁disappeared
▁accessibility
▁Leib
Shirt
▁`
2,000
▁stack
▁Rathaus
▁catastrophe
▁duplicate
Übe
ampingplatz
▁Marmor
spur
▁rough
▁yea
▁genre
▁Cambodia
▁Prototyp
▁liberty
▁concessions
wierig
pül
▁Below
DT
▁mayor
verletzung
DOS
ranging
▁tired
▁weaknesses
▁neighbour
apa
▁Verwertung
▁Lagerung
▁cultivation
liebhaber
▁Bestandteile
▁packed
velop
▁broadband
▁scripts
wenig
▁accomplished
qual
▁Staub
▁Kuh
▁ample
▁alarming
▁servi
▁bizarre
▁Euratom
▁updating
▁manually
▁potentielle
▁compile
CAD
Mittelmeer
▁negligence
▁Serviceleistung
▁alleged
▁turnover
▁Archive
▁scarce
▁Erkund
▁Down
▁Grosse
ungsmittel
▁encompass
▁positively
▁Mono
▁Interim
▁Megapixel
▁privileg
▁facilitating
▁Colon
▁withdrawn
▁Alexandr
knüpft
2005
▁Pirate
▁measurements
▁unüber
▁Episode
reiten
▁GIMP
▁Hygiene
▁inequalities
▁anticipated
risk
▁digit
sachen
▁Oase
▁illustration
Set
bridge
▁starr
geschoss
▁Solid
crib
▁weaken
▁listing
▁Handbuch
zioni
▁detected
oir
deuten
genannte
▁Wiedergabe
strateg
▁Grant
▁Standorte
▁Chalet
elebr
▁Expansion
▁trinken
▁Field
frier
▁flee
motoren
▁neck
▁Gemein
▁replacing
▁suspicion
▁irregularities
▁Jones
▁Kugel
▁hab
Agentur
clo
▁surround
▁Match
skript
EO
fläch
klassen
▁Palais
keeping
▁angekommen
▁varieties
▁Cambridge
▁Azore
▁elimination
▁geile
Kommission
▁preparatory
▁feier
blase
▁statue
▁hinreichend
▁Case
too
▁Organis
▁misuse
▁studios
▁remit
▁Gemälde
▁Stufen
▁fiction
ebungen
да
▁painter
EV
▁DG
▁Schwangerschaft
▁minder
Einstieg
▁Schulter
▁Hoff
▁Niels
▁herein
▁Vitori
ärmer
▁outbreak
dialog
▁Cel
▁rob
▁barely
ompilier
▁Richtig
▁basin
▁anonymous
4.1
▁SAT
▁Cost
▁diagnosis
fließ
▁1900
▁tall
▁Schach
▁Botschafter
bwechslungsreich
▁Boulevard
▁spoil
▁String
▁Knochen
▁households
▁Pedro
▁$2
ashi
wusste
Familie
hoff
▁Piano
▁junior
▁empire
▁imply
▁broker
hara
sensor
▁incredibly
▁patio
▁propaganda
▁exceeding
▁(16
▁disadvantaged
▁Dalai
▁Nahrung
▁Banner
▁Command
▁dringende
▁Ausschluss
▁harder
tam
▁protectionism
▁Liebhaber
▁Kraftwerk
runner
Arbeit
two
Verbände
Romulan
▁Schriften
stimm
LL
▁diagnostic
developed
▁Einmal
▁coat
▁peripheral
ssad
▁Annan
▁wheels
▁Warschau
▁dwell
East
fly
▁Drag
▁incurred
▁Teppich
rettet
▁eleven
▁optimized
▁Formate
▁Eric
▁Pir
▁Bund
▁Kollektion
▁Champs
▁Gastgeber
▁Winkel
▁sentiment
▁herauszu
▁zusammenzu
▁Vertrau
▁lifting
metre
▁Schmuck
▁Muss
▁differenzier
▁relevance
▁umbrella
▁Menu
▁dirty
▁arrang
▁Wiederein
▁Flair
Tal
▁Kontrast
digt
risik
▁writers
▁Ivan
ermitteln
▁Living
▁vegetation
kreise
▁educa
▁robot
aufnahmen
▁(20
▁mines
willigen
▁Conil
▁resident
▁gedr
langsam
rüche
ovic
ologe
quartier
▁eingest
Mu
lieh
▁Bürgermeister
bibliothek
▁Christoph
▁Gothic
▁dock
▁OSCE
▁melod
▁Pick
▁foresee
▁10.000
▁swing
▁Dec
antwortet
Wahlkampf
▁idyllisch
▁unerwünscht
LAS
▁bequeme
▁welch
▁liquidity
▁fri
▁Libert
▁differentiate
berechtigten
Â
▁monastery
▁Badewanne
konstruktion
organism
▁qualification
▁Hochschule
▁Jobs
▁Brett
▁nut
▁Platform
▁Radisson
▁EIN
▁reconcile
▁Sturm
▁vergleich
▁Cafés
lektion
▁Guy
▁compliment
▁upgraded
▁reveals
▁explosive
Plus
▁leid
▁Sharon
fair
ITY
INT
price
▁Reding
pole
▁notify
▁angel
paradies
▁Folie
▁configured
▁Andern
▁не
Musik
ächtlich
▁Appartment
▁Fox
▁generic
▁denkbar
Steuer
▁fluid
▁midst
▁pronounce
▁Outdoor
▁seasonal
▁erschütter
business
angaben
▁apt
GIS
ská
▁Records
discrimination
ersucht
▁Entsprechend
▁Victor
▁Eier
▁bain
▁о
AUF
▁Carmen
▁Stop
▁kom
▁Bestand
▁attracted
alone
▁reserviert
sentliche
▁ranks
λ
▁complied
▁Glückwunsch
▁12:00
▁dün
▁smile
kündigen
▁Spot
▁conquer
▁Islamist
▁verification
▁Knowledge
▁Complete
▁altogether
▁Halbjahr
EAS
▁objections
unternehmerische
▁Clip
▁networking
▁Bestands
▁maxim
▁Mayor
▁Spezifikation
▁repercussions
▁slogan
▁milestone
gesichert
été
▁Ohr
▁eliminated
marke
▁Physi
iskal
▁Schock
chöpfung
▁Giu
GER
▁Lomé
▁Chu
▁Lava
▁dyn
▁sup
▁ansässig
gärt
▁grill
Alpes
▁Roger
▁Rechen
Qua
stürz
▁Trojan
▁Innenhof
▁Geschäftsreise
▁1956
▁generiert
genehmigung
▁republic
▁Patente
▁leak
food
▁Audi
ф
▁Clear
danke
▁Werkstoff
feste
▁factories
hill
atom
▁CSS
▁Fontaine
▁vaccine
▁verschwunden
▁Pfund
0.5
Verbindung
▁Interest
▁fakt
▁2050
gift
▁enchanting
sträger
ет
▁Anmelde
STE
▁ähn
▁Extreme
member
produzent
Col
▁hygiene
Problem
▁Plätzen
▁elektro
▁Present
▁tackled
▁variations
▁Flügel
Leb
▁fusion
▁debut
▁scholar
▁Nürnberg
▁Tastatur
installation
▁praktiziert
▁strongest
▁dispose
desto
▁Hero
hui
genutzt
▁confronted
▁polite
▁rehabilitation
rennen
Manager
▁Bella
▁erledigen
▁Blatt
▁Leone
flüsse
▁Wenige
▁Jesolo
▁Griech
inhab
lücht
▁Spur
gesetzes
▁moon
▁Gehalt
▁soviel
▁hip
▁motto
lut
▁Alzheimer
▁guiding
▁abortion
blau
▁Notiz
▁Gent
sided
global
prüf
awi
▁Freiburg
▁Festplatten
▁EOS
▁Aktualität
PH
▁skepti
▁aspirations
▁Likewise
IND
▁stir
▁Kritiker
▁rote
äulen
IK
▁Jurist
▁Eden
sitzt
▁segments
pression
▁peninsula
aggio
▁hydraulic
▁nominal
▁meta
Krieg
gleichung
▁Install
AIR
belast
▁converter
▁Cuban
▁Alten
▁Fifth
▁Motiv
▁Simulation
Verordnung
▁Tram
▁magical
▁etwaige
▁Automation
▁Benutzername
▁lifetime
▁Attent
finanzier
▁cache
▁deployed
hauptstadt
▁vocal
augen
▁missile
▁1944
▁conception
▁promptly
militaris
▁Meerblick
ctive
profile
▁consultants
▁sä
▁Unterbre
misunderstanding
▁tutorial
▁refrain
kapitalistisch
▁Lehne
▁Barriere
doc
erkennt
employed
▁blocking
▁calculate
kilometer
▁Luis
▁optimization
▁ukrain
▁Signatur
▁personalized
Script
stedt
kleide
fghan
▁Verwir
▁Ray
Málaga
▁enshrined
▁MD
▁berechnen
▁medication
▁Äng
berechtigte
guin
▁grasp
▁empfehle
▁comme
▁geared
▁slu
▁Child
▁momentum
▁chronisch
▁emergence
▁Cham
▁Medi
▁Almost
▁genüg
▁Evans
▁Treffpunkt
Lösung
sector
▁unendlich
▁commissioned
tip
Haus
▁accomodation
▁Around
▁orientieren
surf
▁Vic
brett
lach
omo
ständnisse
▁verwandt
▁YORK
▁Maybe
▁Australian
▁organizing
▁Studierende
Modus
▁preview
▁tire
▁provo
okratisch
▁occasionally
▁Anl
▁Tang
▁fachliche
▁GMOs
▁Castell
bezirk
▁livestock
▁CNC
▁forbidden
geblich
▁Never
▁Cook
▁Exil
▁Vorjahr
bug
▁Terrain
▁deliveries
▁documented
▁Certainly
Zone
▁Acrobat
▁Dubrovnik
▁geringste
▁Papa
▁disappointment
▁earnings
▁receiver
▁corresponds
▁Motion
▁monument
▁generator
sgeschichte
▁Cohn
special
▁Ensemble
cine
▁Monster
geschoben
▁Oom
bedingte
▁Patrick
iente
▁Katzen
▁sec
zählt
▁Brazilian
▁visuelle
▁â
Lab
▁75%
berry
▁displaced
▁reassure
▁massacre
▁Concert
▁pala
▁archives
Bendit
tchen
▁Pazifi
barten
organe
▁fru
▁fed
▁GNOME
▁Heinrich
boat
▁Tai
5.00
▁colon
▁poorer
fasst
▁Icon
ventil
rläuter
▁Rhythm
▁Weihnachten
▁vulnerability
steigt
▁Milliarde
▁Trading
▁Geheimnis
▁hospitals
▁wearing
▁Ecuador
▁ausgedehnte
zeigt
lant
woody
▁Mexican
▁Nazis
▁Brandenburg
Finanz
▁Continental
▁seri
▁tied
▁Angela
▁matching
▁intensity
▁cruel
werden
Ni
▁governor
MD
omprim
▁promotional
riet
theorie
▁timber
▁Brig
▁MIT
kulturelle
▁lush
▁83
▁Hochzeits
▁magnet
▁Mao
▁herausgegeben
▁Schand
versicherungs
▁competing
▁broke
Stadt
▁fremden
▁Physik
▁mile
▁175
▁Komposition
▁exot
▁accelerate
▁privilege
▁Milano
▁Schub
villa
▁triumph
▁Resultate
harmoni
▁Henri
▁restriction
luc
▁amateur
opol
▁Hay
▁premature
election
farbe
läge
▁refuge
▁bevorzugen
▁Fitnesscenter
▁luxe
▁Ecof
hallen
▁plea
▁colourful
kritik
û
▁earliest
▁scratch
▁Komit
▁Pag
rauch
де
fuß
hö
▁recreational
schaltung
▁Quar
▁disagreement
▁Pocket
▁potato
▁kitchenette
▁vorbehalt
▁incomplete
rasant
▁Learning
DB
▁empower
▁faszinier
▁1957
stäb
access
▁instrumental
ocating
▁architects
▁Payment
LAND
▁backdrop
▁boarding
oko
▁snack
▁Epoch
▁installer
political
PART
sync
▁Kyi
PER
▁confrontation
▁Ethiopia
▁Naples
▁realities
▁Cairo
füge
▁São
▁Seville
Mess
verlauf
▁Wide
▁Tak
plikation
▁Cadiz
▁Schauen
Energieverbrauch
▁Prozessor
▁flame
kroa
▁Globalisation
▁1200
üss
helf
nforderung
▁Erasmus
▁Pesti
▁Nephi
▁105
▁Bristol
ondition
▁suburb
▁signatures
▁Polit
▁Hyde
Kodex
▁sixth
step
▁Luz
▁Oost
▁IRC
▁namhafte
▁supervise
▁shores
▁leaf
▁Auktion
▁tear
And
▁Boote
▁Lead
▁Sara
▁dominate
hé
▁accurately
/2002)
äft
▁Miguel
ittelfristig
▁(0
▁verzicht
▁beziehe
▁nein
▁versatile
▁gelb
Lloyd
▁seid
▁Urheber
▁vertrauens
ankt
▁tanks
▁participant
▁monster
▁workflow
▁valve
ijten
▁bru
dale
▁elevator
▁Kupfer
▁screw
▁Weltmeister
▁detriment
szene
▁SIE
▁scenic
▁bulgar
beute
▁somehow
▁erweist
▁specification
▁BBC
▁True
schatt
NIC
▁Ré
ulieren
▁Hut
funktional
▁voltage
▁tub
rosa
▁coordinator
habit
module
üne
gla
▁Terme
spitz
Comp
istik
bourg
Photocopying
▁103
▁critics
ardi
▁copper
prop
▁devastating
▁Invasion
▁economists
▁Honor
▁programmier
▁sunset
tadel
▁Motivation
▁TEN
▁polar
pension
▁Sebastian
▁Glen
▁misleading
▁Ernte
▁Knot
sonder
Sal
▁Malaria
▁irrit
▁Lamy
▁μ
▁Vögel
nwälte
▁tariffs
▁Columbia
ÜR
urchschnittliche
▁abstain
STER
▁massiv
▁severely
▁Bettwäsche
▁Journalist
че
▁Cox
trunk
▁resign
ettel
▁Göteborg
▁symptoms
▁Spritz
Sy
▁Hybrid
▁Dio
gé
▁biotechnology
oria
▁Watt
erInnen
▁Diplomati
▁makers
▁Wallis
▁demonstrating
prang
skandal
▁authentische
▁Ferrero
pop
▁butter
Banquet
▁mankind
▁Aug
▁ramp
COFIN
▁Supreme
▁Yesterday
texte
▁Einsicht
konform
▁Sala
▁formulated
▁parish
▁Reception
plus
ution
▁übersetzen
▁Symptom
▁appalling
acle
▁Quec
relevante
▁HR
▁simpler
Main
petit
▁Oh
▁abolished
BM
▁Poli
▁redundant
▁worthwhile
▁accusation
▁Need
charakter
▁gewöhn
▁manipulation
hak
Frage
▁density
▁vermei
▁defended
▁Straßenbahn
widrig
▁intermediate
▁breakthrough
▁comparative
▁mounting
▁lawyer
▁verschick
▁tuna
▁lady
▁Bronze
▁Nikola
ля
thiopi
▁Safari
▁Ansonsten
▁Mili
hra
▁sweep
▁Distanz
▁Firewall
▁warehouse
scheiden
italien
▁literary
▁casting
▁Cru
▁Kai
Bank
▁kämpft
▁beeindruckt
▁parliamentarian
▁Schwä
gewandt
▁klu
▁Walking
▁Refer
)]
Tu
owa
ORE
▁Kontinuität
▁longest
weiterung
TTE
▁exceeded
▁mais
▁Sauer
▁verschlechtert
App
pent
vita
▁financially
▁Klee
Play
▁eingegeben
garde
▁Orden
veränder
▁asymmetr
büros
▁memorable
forderung
matische
ertifikat
▁chaos
▁Serbian
▁licences
synchron
psi
▁faithful
▁positioned
▁acoustic
▁injured
ermü
▁thrill
▁elektrischen
▁PRE
▁dictate
mili
ا
▁constituency
▁raffin
▁Windsurf
▁suicide
▁brown
▁Blind
▁Entsorgung
▁Arctic
sofar
▁apple
▁veto
****
▁Substanz
▁Allgemeine
▁authoritarian
▁spiral
logy
▁Firm
▁É
▁beabsichtig
▁Early
▁Frankfurter
▁ökonomisch
▁termin
REN
▁cozy
lgische
finance
▁ineffective
Á
architektur
▁Laufwerk
Business
▁diente
▁Propaganda
▁Number
▁einwandfrei
quisition
▁zuvorkommend
▁unterzeichne
innahmen
▁Starting
▁gesteigert
▁115
▁resume
▁Friends
▁Joe
▁Holocaust
▁Wy
▁Ox
▁Vorträge
schieb
Nein
EINE
fat
▁clarified
▁1948
▁disrupt
▁Füll
▁magnetic
▁Therme
▁koennen
▁Dal
▁Jahrtausend
▁kopier
wissenschaft
/2007
kandinavi
▁leverage
▁Legende
▁successive
▁Schuhe
kabine
▁Stereo
▁modifi
▁Meran
▁laugh
▁Dance
onstruktiv
▁establishes
Entwicklung
aktik
▁Nase
▁Evolution
motion
etik
▁Snacks
▁renommierten
▁beneficiaries
▁Rebell
▁varies
oso
▁Flor
▁thrown
▁seating
▁Abbas
kill
▁Suchmaschinen
▁Proteste
ärger
speichert
deutsche

▁Adventure
▁destroying
▁Waffe
▁Gött
▁sudden
ehn
▁Renault
▁Blüte
igende
▁ARE
aku
taub
▁ERP
▁Medikament
▁costume
▁gleichnamige
▁carriage
▁subsidiaries
▁1.000
product
cache
▁utilize
▁schlafen
▁renew
▁tastefully
current
▁idyllic
▁Goethe
Wenn
ANA
▁grace
Val
▁Centro
▁Zeig
usb
ERN
remium
effiziente
▁powered
2002
▁Mike
▁Moon
▁Spass
LES
CHEN
▁uncertain
▁CRM
course
▁Concern
▁Mobilfunk
▁stricter
zier
assa
▁deutschsprachig
▁puede
▁static
▁pity
Pressemitteilung
▁abundant
▁nationalist
▁expecting
dford
LOG
▁condemnation
lingual
drei
▁Witt
▁Emma
▁boys
SEM
tok
▁Initial
IEN
▁está
preng
▁Jura
ggle
kolonial
▁Hals
phobi
univers
▁absent
▁Dame
commerce
hört
salz
▁fungi
▁schuld
▁documentary
▁crush
▁criticise
Süd
▁therapeutic
redet
▁Benutz
onciliation
▁VII
support
gemessen
▁verified
label
▁unvergesslich
▁Dunkel
▁Cypriot
▁weiss
zierte
2.000
▁disappointing
▁kor
▁Kalten
▁Fotografen
▁encryption
▁Gaulle
▁décor
2.1
▁occurring
▁Mannheim
anno
häf
▁Grav
▁cock
close
▁picked
▁Automatic
▁discourse
▁caution
payment
▁treating
worth
▁schei
mode
▁Fä
▁holders
anni
BL
▁totalitarian
ieux
▁Vent
▁realization
▁Installer
▁liebevoll
▁Vorbe
▁foreigners
▁interact
solv
▁Province
▁Join
▁designing
▁rape
▁Hang
ubmitted
Park
▁Breitband
▁LIFE
▁cry
color
wenn
▁invalid
▁liberalization
richt
gling
▁1966
▁Zuhause
EIN
fassend
Client
▁organisator
▁avenue
▁optimise
▁postponed
▁Blockade
▁forecasts
▁sendet
▁Meilenstein
▁wholesale
gatt
▁Manu
▁confused
▁inspire
Class
▁Flüssigkeit
▁Quest
▁Value
mikro
▁likewise
DIR
izza
weight
▁enforced
▁Oscar
Tec
▁definite
▁studier
▁1962
▁eBay
▁verweigern
abschnitt
▁projekt
▁diversifi
5.0
▁merchant
China
giert
▁campsite
Anlage
▁Flut
▁Polar
▁cabinet
▁harmonise
keller
einfluss
▁recruitment
▁explod
▁submitting
▁illegally
▁subway
wehren
schränkt
▁entschied
account
▁Koordinat
▁fountain
▁genetische
▁clever
▁Sack
trib
▁Barcode
Sid
▁Differenz
▁awaiting
▁indicating
▁FIFA
▁stilvoll
▁steril
▁klimatisierte
▁Managing
▁Grüne
▁styl
ltung
▁motorcycle
thetic
▁Wonder
abhängig
bedeutend
▁Carol
▁clash
▁anybody
▁deploy
Museum
▁basket
▁Slideshows
▁gratitude
▁additives
▁Boston
▁Ständ
rupp
▁criticised
▁swift
▁Terre
▁Armeni
▁Fil
wohnhei
▁erfolgreicher
▁shield
▁voucher
▁stornier
▁championship
▁cornerstone
▁capita
agne
spens
▁etliche
Doc
▁einladen
▁Caucasus
▁democratisation
▁Barro
erechtigkeit
▁tiene
▁Eye
▁Majorca
klingt
▁objection
Produkt
genic
▁cautious
berechtigt
▁nationalism
▁tempor
▁Capri
gefallen
shot
ateur
▁avant
achfrage
▁Maßst
▁Nowadays
▁Zigaretten
▁Emperor
▁Alte
▁Directorate
▁Goals
▁Basque
holders
kalender
▁TCP
fallende
therm
kg
▁profitier
▁3.1
Russia
▁prosecution
▁vitamin
▁Kulisse
▁prayer
▁Sportler
Niederlage
parate
▁unvollständig
▁deterioration
▁draußen
▁prestige
▁Kalifornien
▁Hag
▁Dampfbad
▁chic
▁radioactive
▁incoming
bseits
▁Tode
▁enhancement
▁Landhaus
FD
▁containers
▁vertrete
▁Restaur
▁travelers
MAN
▁brave
ен
▁nationality
▁3,5
▁FM
▁Skep
▁begegne
▁peer
▁reflecting
▁Immobilie
wave
Kultur
▁ville
▁Communities
▁formerly
▁null
gold
währen
▁corrected
▁pesticides
▁dish
▁Führungskräfte
RR
lva
▁Verwei
discriminatory
▁Available
▁ICEcat
▁contributor
studien
▁Liberties
▁appoint
▁Schrank
▁1961
▁Tuscan
▁OEM
▁confine
ktiver
▁strand
▁Compact
gnen
▁contamination
search
▁pond
▁Zend
▁sele
▁dated
▁logistic
▁judgement
▁inserted
▁Taking
▁GMO
chsen
bour
▁erklär
▁flor
▁rub
▁fauna
yne
être
▁Bange
▁Brunnen
build
asco
▁Talk
▁electorate
▁licensing
▁Veterin
μ
isoliert
▁violated
dokumente
fuel
▁Veran
ripp
▁Astronom
▁Currency
▁Various
▁Karib
ückt
ки
▁urged
kalk
Bau
▁exported
spielt
Cent
▁prototype
GU
▁frozen
▁Maximum
chat
RIS
▁mangelhaft
▁weitergeleitet
▁Reduktion
▁suppress
▁Karlsruhe
▁Evangeli
▁Footprint
▁230
▁organische
werbung
patent
üster
▁Interieur
▁neg
▁flourish
berlin
gelände
UG
▁counsel
▁Buddha
▁Governor
▁Wanderung
▁Pinie
inhalte
▁Shell
▁funktions
Pal
ntelligenz
▁consciousness
▁Ville
▁Progressive
UND
Entwicklungs
Bad
▁Salzburger
aza
▁gladly
▁raid
czy
▁neglect
▁menschen
▁Edel
ù
▁ägyptische
igno
▁regulating
▁courageous
▁handy
Buch
Il
▁Geschäftsjahr
▁trailer
▁Suu
uid
▁sono
orientier
▁kreativ
stube
▁appearing
κ
▁Blätter
▁mutually
assembl
▁Mahlzeiten
▁implementiert
50,000
▁+1
▁biofuels
▁technician
▁за
▁fehlerhafte
▁regiert
lessness
▁Krk
uga
icker
▁hoteleigene
chtbare
▁childhood
▁Democrat
cherlich
▁guardian
▁mex
chock
ätze
▁reflektier
▁Mitchell
▁kooperier
▁Schatz
meile
▁Geräusch
▁stimulating
▁4000
cula
üm
Mac
Para
▁dortige
GL
▁viewpoint
▁Antrieb
verzöger
▁Throughout
▁Sankt
▁Cardassian
kay
▁infant
▁1964
▁Zeugnis
▁Differenzen
▁influential
▁sexy
ви
▁banquet
rama
▁transposition
▁Schöpf
kant
▁resistant
▁Motive
magazin
▁Aroma
▁Clark
▁drew
▁contradict
ungsmaßnahmen
▁Dicht
umliegende
▁Senator
rutsch
▁envisage
▁surfing
▁encouragement
▁Renovierung
▁Plastik
▁curious
▁enthusiasts
▁adapting
▁Ask
orridor
▁translators
SON
▁Quarter
upervisory
▁Hindu
▁punct
trotz
▁franc
▁judiciary
▁relieve
▁guess
▁Mind
ccia
growing
Option
russische
▁Jim
▁Him
▁Mandriva
▁Accordingly
▁Durchmesser
▁Pope
gesperrt
▁Verw
▁proactive
▁Fitnessraum
MAX
▁fashionable
▁homogen
ruhe
▁Mönch
▁Kristall
▁demonstrieren
fär
▁autorit
▁Made
▁Gebirgs
▁straightforward
▁Julian
▁Maritime
Germany
▁appropriately
▁professionalism
Show
▁cafes
▁Feel
ogg
cross
▁anticipate
hindert
▁García
▁Neapel
▁opposing
▁wholeheartedly
config
OU
olle
▁unsich
▁Fortbildung
▁Ohren
▁Feed
ota
ethyl
▁binary
owski
▁Skulptur
▁Yahoo
▁collaborate
▁gefeiert
▁proprietary
▁Layer
diagnose
▁conditioned
▁befre
MX
funk
Mitglied
gekr
High
montage
▁accountable
▁Tschechien
working
onig
▁vorzeitig
▁Sak
▁irresponsible
▁begeistern
▁Nerven
▁Nuclear
▁Nomin
▁Abonnement
▁unerwartet
Vervielfältigung
▁captain
▁geschm
▁fiber
this
Geschäft
▁indulge
▁Friedhof
▁Airconditioning
▁Transformation
flamm
▁Jeff
ügen
▁Wirkstoff
invest
laufende
schäftigungs
▁bombing
▁morg
nternetanschluss
▁tail
▁Kabine
▁González
▁Matthias
▁Louvre
▁Underground
Auschecken
▁Hallo
▁attachment
arzt
▁rod
▁15.00
segu
▁Fried
▁verspricht
▁headed
▁expresses
▁Rahmenbe
▁Mali
▁unclear
▁Heck
▁selective
▁Virgin
balanced
▁counting
▁verfassungs
▁Aviation
▁stadium
▁snowboard
▁Muttersprach
▁renommierte
diger
schaftlich
raising
▁peu
▁obstruct
dicht
▁Bring
volu
▁Isle
buffet
▁Uran
▁Soul
▁outlook
▁prote
▁legislat
paper
▁Hemm
▁Built
▁stroke
▁optimistic
▁drift
geschickt
räuche
▁restoring
▁exhibitors
ANGE
lassungen
▁dispos
▁hebt
▁Billion
erechtigung
▁Schnittstellen
▁Ambassador
▁epidemic
▁coincide
▁Template
▁Gabriel
komfort
chse
ENS
▁fremde
▁dose
▁fool
▁Schmidt
aufgabe
▁judged
▁letting
ündete
Super
ма
▁Vermittler
▁Knopf
gehensweise
▁gay
potential
production
umfeld
▁Dynamic
gesteuert
▁Butter
▁Galicia
▁Deut
▁Echt
▁Mora
▁glückliche
VR
▁Ressource
prise
▁auditor
herstellen
▁bowl
▁synthetic
/5
ämt
▁Buddhist
▁ICT
▁Bungalows
▁organisms
▁volcano
dikt
▁prohibition
▁dazugehörige
schenko
▁internally
▁Capo
orientiert
pani
▁Chapter
▁beginners
konsult
▁Veto
▁mixing
▁Persönlich
gänger
▁onwards
▁casa
▁smoothly
▁Photograph
Arabi
founded
▁ecommerce
placement
itology
▁Einflüsse
▁depression
▁blank
jug
Wirtschaft
▁pending
▁1963
▁Bird
▁disability
▁mold
vorsorge
▁Nicaragua
▁alleinige
▁Novotel
▁Hip
teilige
▁ausgegangen
escu
▁kilo
▁Maxim
otel
blut
▁DU
turz
▁Traffic
▁Szenario
▁poison
▁insult
▁Vigo
▁grösser
udgetary
▁Entschuldigung
turbine
▁accent
▁kre
▁Stable
definiert
η
▁Uruguay
▁Inspiration
▁Crespo
▁utilise
liba
ugu
▁formulation
VC
▁JPEG
▁charging
warf
▁erstaun
▁habitat
▁guys
▁Scanner
▁101
stopp
▁Drug
opa
▁Paulo
▁Merkmal
fass
City
▁texture
bedürfnis
▁Bahrain
▁balconies
▁concluding
▁Metropole
frig
gul
clear
▁connector
▁beherrschen
▁Venetian
▁archaeological
dependent
▁confined
üß
▁(4)
Soft
▁Makro
▁schrecklich
maßnahme
▁Distributor
▁monopolies
▁dispatch
▁syr
▁monumental
GASP
issbrauch
▁passionate
ся
▁Durchschnitts
▁Unterstütz
▁depriv
▁brasili
▁Verleih
▁methodology
ehmlich
▁Nationalismus
▁wu
haupt
▁refrigerator
▁shaping
▁Techno
▁Surround
▁platzier
contract
hov
hund
▁Companies
perspektive
▁retrieve
▁ritual
▁Eva
▁footing
OLL
▁demonstrier
gestützte
▁exterior
▁horror
lique
▁revive
Child
shirt
harmazeuti
▁lengthy
▁schwimm
mutter
▁somebody
computer
äuer
vour
▁Bask
▁servants
▁erheb
▁singing
▁Flat
▁Aufenthalte
▁spray
anci
▁Krat
freut
feed
eihen
▁Different
▁Herunterladen
▁indicator
Gebiet
▁confort
▁traveling
zei
▁Rechtfertigung
▁Andrea
▁haut
▁1800
▁unterschied
fÃ
brech
▁Cameron
▁intensify
▁Republican
good
▁1939
▁oak
▁vibration
▁Denkmal
▁1,000
▁frank
akteur
▁Vakuum
▁Regisseur
▁Array
▁comprising
▁Slot
▁confi
▁Lebe
culture
▁interpretiert
▁shake
kopie
▁creator
▁Swimming
▁unequivocal
lltägliche
▁Target
abotage
▁1951
▁1949
▁1.6
fristige
location
▁forcing
▁Laufende
urnier
▁Vil
▁Termini
▁Malware
▁ml
IRE
udel
▁gespannt
UK
sverschiedenheit
▁Perspective
▁disparities
▁chambre
▁privatisation
▁workstation
persönlich
▁Traditional
bahnhof
▁Petro
▁leap
▁Antibioti
schlaf
POL
▁murdered
Alt
▁Intens
▁Daily
edle
▁horny
TEX
▁Temp
▁Elba
kost
ienne
▁Erwähnung
▁Manipulation
▁Practice
▁verschlüsselt
tapel
cott
western
▁Kleb
▁Tir
▁Stage
▁Benzin
▁großartig
problemati
cé
▁consultancy
▁Handtücher
▁restart
▁Anordnung
▁Südamerika
▁Eigentlich
raff
▁Tipp
IES
▁browse
▁Rational
▁kub
längst
fiel
wissenschaftler
▁leckere
▁Einzahlung
▁Elf
ом
Quadrant
▁enjoyment
▁gast
anders
▁Developer
▁injustice
▁hormone
▁distress
motive
▁sensib
neutral
▁Colom
determination
▁reconstruct
▁Invest
▁prakti
lieben
▁Nevada
▁Vernunft
▁Vorreiter
EAR
▁Fremdenverkehrs
Form
ognitive
▁Story
▁mg
▁Valid
ragende
▁Fashion
▁Habsburg
▁pupils
▁Burundi
▁Christopher
Key
▁Lach
oki
Initiative
▁spur
▁Publikation
▁exemplary
social
▁Ramada
▁lava
▁Heart
▁attributed
schlecht
▁steady
mantel
oundproofed
überweisung
lix
▁Oil
▁exam
▁claiming
bwehr
formelle
weilig
▁remembered
▁undermining
▁Automotive
trakt
▁Backup
Source
National
Ç
▁jacuzzi
▁draftsman
▁salaries
▁möb
igte
▁Helden
▁1958
richtet
▁slope
▁Duft
geschützte
▁gestützt
▁Marathon
▁Schröder
schliessen
▁Bischof
Fahrplan
▁authorization
▁Trink
1998
▁nutrition
▁Verzug
▁slowenische
dafi
File
blend
▁Birmingham
▁Rico
EZ
LINE
▁Nicolas
publik
▁knock
fiziert
Master
▁nel
limb
schraub
/2003)
▁Jakob
▁facade
▁warmth
▁MSN
▁Akku
▁Kambo
▁appealing
woll
▁excel
ausweis
foot
▁Senegal
▁marvellous
▁Hostal
▁tasting
▁lustig
shore
▁offline
▁investor
▁reopen
lv
▁aggregate
▁Canyon
▁schickt
wiki
▁Esta
▁Bauwerk
▁Münzen
EMA
izielle
▁Isolation
▁norms
▁thrust
▁deprived
Beleg
111
neo
▁Racing
▁240
▁Brava
▁provoke
▁jury
▁ILO
nklage
▁nomination
▁dorm
▁historian
▁Werner
chard
▁Imaging
▁mall
▁Fuerteventura
▁Palermo
▁xenophobia
▁Football
▁Schirm
▁Delors
▁Blitz
▁touched
clean
▁Kost
▁supposedly
Pipeline
▁Focus
▁thickness
lässig
▁dying
340
▁hay
▁reformed
ĺ
▁Already
▁commodities
▁DSLR
▁verkörpert
▁geb
▁readily
örder
▁Raucher
▁Mother
dürftig
▁Hobby
▁Byrne
▁Ruinen
ppt
▁inventory
▁Reiter
▁kommerziell
handwerk
▁Salzkammergut
▁fifty
▁moratorium
▁educated
▁breakdown
▁Overall
tehende
schwerpunkt
Luc
ве
▁angrenzende
Alle
▁hereby
▁Jungfrau
löste
▁excluding
kw
▁investigated
▁Allergi
schicken
stimmung
▁Freundlichkeit
verpack
▁conceived
▁fame
▁transferring
statut
▁Bosch
▁Bab
▁Alicante
▁Donald
▁actress
▁infected
▁Adoption
▁Sachverhalt
▁PLA
unabhängig
chlich
▁verwir
ferien
Peter
▁dancing
▁editorial
▁flank
AMP
▁prostitution
▁1933
▁proportional
stärk
qualifizierte
▁spontan
▁Toulouse
▁Vladimir
regime
wu
▁hinten
▁Hormon
▁Login
wöhn
▁123
▁Rö
▁Jose
▁employer
▁ETA
gesucht
▁akzeptab
▁diff
▁betrachte
mur
▁Hold
▁Christi
▁precarious
▁Interoperabilit
▁Relais
▁Luftverkehr
▁Half
clip
▁Money
onym
▁Sich
Mor
▁===
▁``
▁mentioning
▁Romagna
▁Combin
▁Admiral
▁ethics
▁Keynes
▁Pier
▁ausdrück
schnell
▁Gul
▁Gassen
▁Whenever
▁stehe
beschränkungen
Boot
these
edenz
▁Maya
trud
finanz
▁contractor
▁(0)
schalt
tellektuelle
explo
türme
splitter
▁André
tafel
technic
▁spatial
▁Lower
existent
NDER
accueil
▁cleaned
Industrie
wochen
booking
ichtigkeit
ommissar
▁Vila
▁DivX
▁KUKA
▁contradictory
▁Countries
schot
tended
kleiner
▁pdf
▁unwilling
▁Delphi
marsch
▁Boeing
▁Chang
▁Pauschal
▁Vinci
guide
▁kommunal
▁refine
▁discard
tele
schritte
▁Fix
Windows
▁Gill
▁Interessant
▁Andorra
▁Javascript
▁Anlauf
▁vorzustellen
istrikt
contr
lump
▁alloy
▁1918
▁ausgeb
fä
woche
▁stipulated
▁Semi
▁Einnahme
älschung
onfrontation
▁Commercial
▁Collins
▁county
▁hace
WAR
▁designation
▁lucky
künstler
▁poorly
▁Heathrow
▁Vegetation
▁Absolut
▁Entscheiden
▁coupled
▁fond
▁artwork
opath
gefä
▁Kart
▁freeze
2003
▁Bibione
▁firewall
▁Multiple
Call
▁Gregor
ekretär
ře
▁Floor
▁highlighting
verbindlich
▁Weinberge
▁Build
(2001)
Platz
▁copied
▁Silicon
irbt
▁Lamb
3.000
▁threatens
pati
gegenstände
▁thirdly
▁filed
VIT
▁Malerei
▁resolute
▁Brü
▁Juncker
ologists
▁1947
tolerant
lastet
desk
▁nicely
▁
▁pound
▁Neuseel
▁weaker
▁oberhalb
watt
▁Adjustment
▁refusing
opportun
▁Protein
▁differing
Taste
▁Mechani
▁hoc
▁beleuchtet
▁supplying
▁recep
öb
▁Dinner
▁Mathematik
▁MHz
▁durable
▁DAS
▁alkohol
vá
▁Unterwasser
atti
▁deregulation
engere
hauer
oordinator
Р
▁Plasma
▁abide
▁Comment
patriot
blieben
icia
▁realisation
vou
▁allocate
herberg
Sign
▁Buddhism
▁Frühstücksraum
▁revolutionäre
▁Schweiß
steigert
▁gastronom
have
▁SLR
▁frankly
mäss
▁adapter
ähle
▁CMS
▁Platin
Organisation
▁Brian
▁undermined
▁Kräuter
▁cooperating
▁reconsider
▁Ethik
▁reproductive
▁biking
ärztliche
läubige
läser
flute
SION
▁politician
▁Publishing
▁Fujifilm
Ivoire
▁prosperous
Lu
What
▁Frontera
▁hatred
▁Sample
▁hostage
▁Reading
putz
▁swiftly
steuropa
MOS
▁Lima
izar
▁Diskurs
▁Beyond
▁socket
▁07:00
▁BugTra
▁ausgesucht
▁publicity
▁Absprache
▁ZF
▁Nordost
▁Passage
▁opponent
▁Kelly
▁Jersey
▁petrol
▁ASPs
hnlich
onfiguration
▁warned
▁altered
▁Beque
▁Ubuntu
▁Edelstahl
iglia
▁Konf
ventur
klam
▁enchant
▁excursion
▁Myanmar
▁Military
▁sunshine
▁Vernetzung
▁137
gedacht
▁Künste
▁glance
▁betriebliche
▁shoe
▁Navy
▁Como
ské
bonus
igne
▁ästhetische
▁Wikipedia
Kartoffel
▁resp
▁pixels
▁Lieutenant
▁deliberate
▁switching
▁Andalusi
eutzutage
▁Ministerium
▁patience
▁vaccination
▁EBIT
▁incompatible
▁entirety
▁Petit
▁Diplomat
▁tale
wolf
onstellation
rön
ů
▁anderweitig
bracht
▁Carbon
▁Italia
rail
versuch
copy
▁dedication
store
▁Sofa
VG
▁
▁insisted
▁Belo
ς
Person
▁berühr
▁seamless
▁Panama
▁Hitze
▁salary
ERA
local
Hol
▁Grundsätzlich
▁Fro
auftritt
▁Fru
gnung
▁diploma
öpf
▁Tuber
IMM
▁Sauberkeit
RON
▁Wij
IGHT
walk
▁penal
NST
▁postpone
▁Flag
gott
▁Bohr
▁peculiar
▁diamond
▁Pionier
Diese
▁Pfarr
VOY
iew
▁Schlei
▁sobre
▁Blanca
Runde
▁Zion
ahnsinn
▁prevailing
▁Folk
▁obligatory
▁Vertragspartner
▁Gebirge
▁formelle
▁manipulier
▁höre
IDE
▁Kiefer
▁Erwartung
Sync
▁consume
saving
▁nowhere
▁nachts
▁Ironing
▁Establish
▁Heide
��
dizes
leitete
▁patented
heilig
▁fruitful
engine
nachmittag
▁Vancouver
▁doctrine
▁lodging
▁Kleider
Erweiterung
▁Cres
▁extraction
▁Horde
zze
Sha
▁Apartamentos
▁Glasgow
▁sacred
▁substantive
▁Remember
▁betting
▁volcanic
▁populated
▁ambient
▁UCLA
▁Medicine
erblich
▁minimize
1.1
▁Notre
▁mud
▁salad
kzepta
▁trillion
autor
▁stopping
▁Trauben
anschluss
▁Beine
▁exercised
▁Philippe
▁Zöll
▁autoris
▁vegetarian
▁Cluster
technology
▁Oberste
▁Söhne
▁aktuellste
interne
▁Böse
▁Barri
▁Verf
ontinental
ransaktion
begleit
▁Alternatively
▁rejecting
▁absolviert
ordination
▁Bordeaux
▁Wagner
▁manoeuvre
url
▁USE
▁englischer
rühmt
sekt
▁advisor
▁verhält
▁Gaming
Linie
▁Brad
▁650
▁reproduce
▁Jürgen
▁cyber
consuming
Learning
▁Neuheit
▁Einkaufszentrum
▁Arabic
▁touches
▁underway
▁verbal
eggio
iefer
▁1,2
▁11.30
▁abgelegt
pirate
Tru
▁Roy
inkt
ARI
ppy
▁Tenerife
▁explanatory
▁Venezia
▁merkwürdig
▁weitergeben
▁Simple
▁shirt
▁discovering
▁Horse
▁Analog
▁Hex
Berlin
Suite
▁Luxury
▁incorporating
write
bedienung
+2
▁Materie
polymer
▁preach
wp
▁navig
▁propriet
▁produ
▁Coffee
▁überraschen
clock
▁Riva
Geräte
Energ
logical
▁hedge
▁lumin
▁Elisabeth
▁nominated
▁replica
▁lying
▁Ou
▁greet
generative
▁Zieh
area
ropolis
geschichtliche
kombination
▁Jubiläum
▁Tribunal
▁happiness
▁recognising
▁simplicity
▁loyalty
▁cafe
TRE
alästinensische
▁Bedürfnis
▁Phone
▁Generator
Schlucht
hergehen
▁unchanged
▁league
▁Francesco
floss
▁Nico
▁1959
MV
▁1929
stahl
▁guesthouse
iah
stamm
▁Südwest
▁explaining
▁gemeinnützige
▁unangenehm
▁gefa
heimlich
▁tibet
▁Hubschrauber
▁Flamm
umpf
▁Movement
wieder
▁Garni
ezza
▁recourse
▁Path
▁Foucault
▁Geschehen
ło
erträglich
ggel
▁policymakers
▁specialties
coup
Teil
▁imprisoned
interpret
▁traders
left
OX
bär
Info
▁eMail
▁Joy
▁SPE
ई
▁Accommodation
▁earmarked
▁Falk
ор
touch
▁disturbing
Lite
▁versenden
▁Ersatzteile
▁Kapelle
stress
geklärt
▁historically
gewalt
▁reunification
▁ridiculous
▁pluralism
▁unvergleichlich
▁argumentiert
▁heel
▁celebrating
▁Fuerte
Institutionen
iev
▁essay
▁Device
▁gelebt
▁faction
▁suspected
▁Maul
▁millennium
▁chill
▁traceability
▁invented
▁foto
▁Gome
▁Glei
▁sadly
/08
folie
▁[2]
▁occurrence
▁subsidy
▁Gordon
▁+49
▁excessively
▁Locker
▁Kommunal
▁bibl
▁Johnson
▁eingefügt
▁Math
▁ambassador
▁expedition
bollah
▁polish
▁scroll
▁proliferation
adores
ulose
▁awake
Mitgliedschaft
▁Alca
töck
WIN
Bundesregierung
qualifi
olic
quat
▁browsing
▁hitherto
▁eradicate
▁Ericsson
▁112
ämpfer
▁1952
Verhandlung
erhoff
▁Monta
sprachliche
MF
▁lifted
▁assuming
▁Notebook
sighted
disk
▁dunkel
white
üchte
saft
▁PDA
merz
▁Zusammenhänge
▁Roche
▁Davis
akademie
▁Reflexion
▁steadily
4-04
QUA
▁Kod
▁Mitteleuropa
▁globalisier
Epidemi
▁wealthy
▁copying
▁assisted
Bahnstation
▁etabli
▁physikalische
chip
▁undergo
geliefert
child
liefert
▁modem
▁begehrt
pfa
▁simplifying
▁Earl
▁advocated
▁Norwegian
▁discriminate
▁ABAP
▁Kevin
▁Ž
inlands
school
▁grab
▁Feature
früh
Tropez
Täter
ordinate
▁Recent
älle
▁cab
▁infringe
▁ambiance
bord
▁Fahrräder
▁Schuman
▁communicated
▁Julius
▁verschafft
▁sentenced
▁jugo
▁ZU
▁Homo
01)
▁completeness
▁eventual
▁prudent
▁Arb
▁pretend
▁auszuwählen
wai
tennis
bewu
▁Construction
▁worship
▁Recherche
▁Surely
lüft
▁Bashir
▁plasma
▁Amateur
▁farmhouse
▁rotation
▁Steig
▁Fallout
▁mysterious
▁Mandels
Sendung
Text
▁correctness
▁Adapter
▁Ponte
ŕ
▁restraint
▁assortment
▁Functional
▁Werkstatt
▁räumlich
▁Animal
▁AGB
▁Puffe
▁5.1
▁Season
▁Solution
damm
▁verspätet
▁Apollo
▁Heat
▁Rausch
▁Dichter
▁Pilg
▁lamps
▁exile
▁locked
▁spark
owner
▁overlap
reichste
▁Tablet
▁Neighbourhood
Moratorium
▁welding
mitarbeiter
Szenari
AZ
▁botan
KU
▁unwind
▁Blei
▁Oli
Produzent
▁Manual
▁confer
▁companion
▁midnight
▁packing
rsprünglich
gründung
▁Cave
ifier
▁Garant
▁Leh
▁Formula
▁unmiss
heft
▁apparatus
▁DNS
▁funktionell
froren
palast
▁gateway
hap
▁Risk
lokal
chriftliche
mani
▁Befrag
▁sammelt
▁hurt
riff
▁Wiederver
▁Yoga
▁VON
erkmale
ан
▁Sektion
writer
▁manipulate
▁rooftop
▁harmonization
▁organisational
Technik
▁Knight
zehnte
▁Helmut
▁kindly
▁innovativ
gainst
▁Pest
▁Mulder
würde
gression
▁256
▁Oct
▁abweichen
wise
▁MR
schmiede
deral
▁Antwerp
▁Constant
▁evaluating
▁Schlecht
ührung
brau
Akt
bschließen
effizient
einschließlich
symbol
lma
▁Circle
▁microwave
around
1000
▁Maschinenbau
Mission
▁sharply
▁feeding
RW
▁emitt
▁11:00
▁Mauri
▁Dive
typische
▁Demonstrant
▁Tutorial
▁physician
▁surrender
▁injuries
▁Alfred
▁Anläss
▁Grön
Sport
▁subtle
▁Bundeskanzler
urheberrechtlich
▁Geschehnisse
▁Janeiro
▁Konkret
eño
▁homosexual
▁RAW
ablauf
▁Except
▁swap
Stätte
▁traveller
Write
▁radar
▁Rav
„
ltät
▁Einzelzimmer
▁Richt
watch
▁Laos
▁fotografier
NZ
▁wellbeing
▁verwöhnt
▁dependency
▁forefront
Kündigung
hoc
▁Operator
quant
trug
ähnliche
▁Quad
▁Modal
▁Pere
▁drought
▁katholische
▁Nuendo
▁mainstream
▁Infra
▁Jul
flat
getan
▁Protect
rühr
▁Barock
▁Municipal
▁cloning
erbai
▁Gunst
▁1955
Speed
▁centro
▁pink
UCH
firm
▁Wiesen
▁Gastein
▁Gefährdung
▁prince
wij
▁breaches
▁stuck
ICK
tabling
▁Spät
▁Minor
litter
önnen
fracht
▁evolved
▁ausschliesslich
▁Wizard
▁souvenir
bühne
▁neglected
▁cylinder
▁intact
▁mainland
▁Vene
parameter
▁Programmierung
▁Barbara
▁cheque
Aktion
▁disclosure
▁Katal
verbesserung
▁Supervisor
saug
ohr
▁Werft
Ku
EAD
prove
▁decree
▁Geisel
bah
§
athlon
▁Unver
▁Bé
shofs
▁Köstlichkeiten
▁struggling
▁jeopardise
▁Maure
▁attendance
ompressor
PN
▁Reisebüro
zählung
▁Champagne
▁Akzent
▁Costasur
▁belast
▁1946
▁Bienen
▁Consult
▁geographic
▁Nick
▁holy
polit
▁280
▁Chávez
▁Seychell
▁engaging
▁weakened
niser
UV
▁Lull
▁termination
Schnittstelle
Community
▁Crea
trü
▁Spender
könig
▁Senate
▁Herrscher
▁Roulette
▁appliances
▁mercury
▁inspectors
▁montiert
▁umgebaut
annoye
▁desperate
STR
▁GSM
schuldigung
▁insulation
▁Schadensersatz
▁CFSP
▁Wär
▁LEGO
trend
tädtchen
▁Sexual
▁Added
▁Frame
wheel
7-0
gtu
ioxid
▁Glacier
▁versammelt
disproportionate
▁Venture
▁Cut
▁Gli
▁stagn
ehäuse
▁latein
Benachrichtigung
▁Mietwagen
▁bloc
▁shipped
▁Comic
▁relay
▁Ego
eremonie
▁occupational
Engine
ANCE
eilig
▁Maha
'']]
▁revise
brow
▁monet
▁floating
Elysées
▁curtain
▁Reference
▁Homosexu
rapeutische
arnt
▁miracle
▁18:00
▁ensemble
MAT
==
portfolio
▁detrimental
▁immun
▁projection
▁Legislatur
▁radically
▁sectoral
PDF
project
▁Leu
▁Death
▁Psycho
Å
▁Toronto
▁Erzähl
▁vorsätzlich
▁fait
ubvention
▁suggesting
▁starship
API
LAB
commercial
▁aforementioned
▁unambiguous
▁steering
▁ausgew
▁reparier
cole
▁Familienbetrieb
▁Alto
TON
▁135
Installation
geschmack
▁athletes
ünktlich
▁Catalan
▁wohlhabende
ulo
▁Belgrade
▁photographic
nutzerfreundlich
▁3.2
▁originate
agenda
▁Herzegovina
▁Marseille
▁hamper
▁locate
▁assault
gerüstet
▁damp
regulation
▁Herd
232
SYN
▁Ruhr
▁upward
nachricht
▁twentieth
ooperative
▁focal
hitz
▁Provision
▁Kenia
▁Spiritu
▁fünften
▁Marcel
mpfänger
Punkt
▁queue
▁mehrsprachig
Württemberg
▁Amnesty
▁Fußgängerzone
aufbau
▁username
stad
Speicher
▁underlined
▁triggered
▁Polio
▁Schiene
▁Remote
▁Kompakt
▁chicken
▁irrelevant
▁1941
ierbarkeit
migration
▁1919
▁disturb
▁Fahne
▁Enhanc
limp
▁Packaging
Norm
serwartung
▁Glücksspiel
▁1954
▁Exposition
▁LG
▁spek
▁Häf
dün
lamische
interoperability
▁Gläubiger
▁Helfer
▁Fürsten
▁zurückhalten
▁hanging
Band
▁Progress
▁2-3
▁Cerv
träglich
▁Brothers
▁Nächst
▁Sheraton
▁Destination
bedingt
chwör
▁displaying
IZ
pä
iš
Konto
kli
Meta
▁108
▁seize
Gesellschaft
Universität
▁Führ
▁nachträglich
▁François
▁iTunes
VV
▁Wintersport
üpf
▁Move
▁cached
▁Geno
▁Isabel
▁Wund
REA
▁drastic
ن
▁consecutive
▁Strahlung
▁Ritter
ABLE
chtigen
ру
Kopf
Traveller
▁Tatra
▁unification
▁immune
▁Brittan
▁punished
gemein
▁Sarah
▁tit
▁Joomla
▁vigilant
▁Kälte
▁Geschirr
▁philosopher
▁geopolitical
▁Stephan
▁Ulrich
▁Konsole
▁Chemical
bombe
▁María
▁illustrated
▁boss
pond
▁på
▁Flander
▁Ljubljana
▁remuneration
▁SWIFT
▁Lausanne
▁describing
▁inquiries
▁Factory
▁Essential
atorische
▁narrative
▁compression
ekret
studie
▁Äl
Côte
budget
▁Kanton
▁Senat
▁Taylor
▁exercising
▁incapable
ausfall
▁provisional
▁BGB
▁einsetz
rechen
▁Satellite
▁laboratories
▁particles
▁Tyrolean
▁Function
radio
▁Faust
CAS
utive
▁Erfahr
bewohn
▁Root
▁Gutschein
0.2
▁Gratis
schossen
üttel
▁Bruno
▁VW
▁Schwung
É
2001
▁yourselves
heng
vergnügen
ggia
tüm
▁colony
Überweisung
ugung
bath
▁Riker
▁avail
▁upgrading
▁striving
▁occup
gefunden
▁formulate
▁adjustable
▁Glu
voraus
There
▁Chart
Burton
LEX
▁Riccione
▁dictionary
▁stairs
▁Kurve
▁Meld
Open
▁Telekom
Ski
▁Dominion
▁Ortega
establish
credit
▁Namibia
▁XLSTAT
▁heisst
▁sech
kiss
▁Fernando
▁conformity
anwalt
portiert
fax
Sub
▁Musical
▁Römische
ğ
▁Azerbaijan
▁Madonna
▁reinforcing
▁Balaton
▁Verschlüsselung
▁pray
▁invoke
eitfaden
Pack
▁1600
▁bundle
▁Polizi
▁Immigration
▁observer
deutsch
▁deux
▁Algorithm
▁seriousness
magnetische
▁hazard
▁McCree
▁про
−
▁Gouverneur
▁Sustainable
sequenz
▁Burning
▁Einzelbetten
holm
rundet
unterlagen
ungsentwurf
}:
▁lohnen
roman
▁129
▁Schreibtisch
kasten
▁Befestigung
▁Liverpool
▁implicit
▁reluctant
▁unsatisfactory
▁defensive
▁Reiseziel
▁forgive
hid
▁barrel
omplement
pressiv
▁forgetting
120
▁disruption
▁recovered
▁plum
▁marketplace
Zentrum
▁abgeleitet
help
▁Aktivist
▁oriental
▁juego
Our
▁drucken
ologist
RAM
vollständig
▁Kreta
▁cooked
iesbezüglich
▁mobilisation
kannte
centre
LOS
▁optimism
▁Visitors
▁grind
▁Mühl
olvency
▁Schauspiel
▁Bangladesh
▁residue
▁unzulässig
▁Purchase
gewerbe
glatt
▁rendered
▁plateau
▁magische
ährt
▁stav
glu
▁SanDisk
▁controversy
▁Sardinia
▁diversification
▁consumed
disciplinary
▁dump
isenberg
▁Isla
▁dismantling
▁hypocrisy
SYSTEM
▁Klienten
▁Einreichung
doppelt
job
schmal
▁Emil
Woody
ène
▁Important
treiber
▁frustration
IAL
▁advisable
▁exploration
ί
▁blühen
▁metabol
article
bedenk
▁profitability
▁Kali
hochschule
▁Anonym
▁arose
▁disseminat
▁precaution
▁angep
▁Expedition
▁Mubarak
▁entrusted
categori
▁Schifffahrt
loy
expo
▁Volksa
found
▁Making
▁Sulzer
▁nachvollziehbar
▁pluralist
▁seventh
analyti
▁Widerruf
▁militant
▁funny
▁assisting
▁Tatata
▁fairness
▁retailers
Computer
▁sau
Poker
▁propi
Media
▁pensioners
▁PRI
europe
torik
▁Galaxie
elected
▁NGO
symmetri
▁Faku
över
▁Lieb
revolution
lieder
▁collectively
▁famil
critical
ци
gegenstand
terrorism
▁diagram
▁Chernobyl
▁Gesang
▁orphan
▁Versandkosten
▁Fauna
▁pou
Schl
▁administer
klamm
wickeln
arco
▁Bourdieu
▁approving
▁physics
Behrendt
▁intolerable
▁worries
▁Picasso
berühmte
▁crazy
▁Method
report
schreibt
▁Pizza
▁Kremlin
▁similarly
▁Sekunde
▁tiles
eitet
▁Strip
▁fanat
exp
▁destructive
▁encrypted
▁puzzle
▁divert
▁terminology
▁Miami
▁gastronomic
▁Repression
CAN
▁Vita
▁blade
▁resemble
kzept
▁theories
cchia
▁analysed
Lizenz
etrüge
▁Peninsula
▁10,000
▁Rückgabe
ieri
▁Yugoslav
▁Neuro
▁DEL
▁MwSt
▁axis
▁defeated
moor
▁Kairo
pflegt
▁Dragon
▁jungle
▁Fleck
mehl
▁relaunch
▁bacteria
▁malaria
gefahr
▁Bible
▁kontinental
▁Rag
▁SOE
▁stabilisation
▁corporation
▁temptation
▁saint
höchst
▁Bauernhof
▁substan
deutig
▁conceptual
▁worm
photo
patient
▁Politische
▁Silva
▁Trilog
ō
▁pertain
▁auszutauschen
▁Marktanteil
▁chalet
Produktion
▁selbstständig
▁Fachkräfte
▁translator
▁Porta
dienstleister
▁kontrovers
▁improvis
▁silicon
▁Abnahme
▁fence
▁expose
▁physically
astic
▁funktionale
philosophie
▁impartial
▁pamper
▁masterpiece
Off
▁brennen
▁originelle
▁Camera
Qualität
▁Fragment
▁excitement
▁Ghana
▁implied
ří
ätz
▁proceeding
innig
HNE
▁rope
Cap
▁Positive
▁100.000
rnobyl
▁Honduras
▁deplore
▁verborgen
▁utterly
▁situé
▁eternal
gereicht
▁curb
auschal
▁Supermarkt
Stil
▁Nephite
▁Azeroth
▁Wohlfühl
▁Nobody
owl
▁Kiel
milch
▁Riga
▁Elizabeth
▁Kaliningrad
▁Paradox
▁tick
gerissen
▁alba
gnant
uvre
▁Radar
▁Harvard
▁Orlando
▁unconditional
traction
▁Demand
▁lease
▁homeland
kott
▁(2005
▁Schleif
▁KORE
lipp
▁illnesses
deutschland
▁Zyklus
▁Nuevo
▁circa
▁Lucia
reservation
▁erobert
▁mainstreaming
▁Thal
▁neuste
who
▁Eritrea
▁barbecue
borough
degli
Power
▁salmon
▁Lock
▁angefordert
▁INTER
Frau
armherzig
▁Steh
fru
änke
▁Rehabilitation
▁mattress
▁Arthur
▁Härte
▁Waldb
court
élé
prämie
▁distributor
▁organizational
▁Nike
verschuld
▁Trio
TECH
▁downward
▁appartement
▁camiones
▁baroque
▁glory
gnet
▁Kofi
▁simultaneous
ilia
▁Robot
▁disarmament
▁Schrey
zuschauen
▁beginnend
▁€1
opo
umble
ommunistische
▁void
Mil
▁Fotograf
▁Portugies
▁discourage
▁Catania
▁Sunni
Europäische
▁Interactive
psy
éné
pick
▁1917
äglich
established
▁Jamendo
▁manuscript
cette
▁Pietro
▁fishery
▁tray
Hoch
▁Copy
▁Hugo
▁109
▁cited
▁Gutachten
Hilfe
▁Strich
make
▁chapel
▁Einstein
▁Fill
leib
▁debit
ī
▁Orthodox
▁Nelson
▁gratuit
definition
▁Roland
▁1938
▁1934
Sarge
Bru
▁Gewi
▁befestigt
▁cloth
▁extensively
▁Kollektiv
▁uranium
▁machining
▁Kirch
▁constrain
▁Leih
create
vgl
▁Trü
▁Öst
▁→
▁strap
smith
OFF
▁Lorenzo
▁sauce
ichhaltig
▁unterschrieb
▁ministerial
▁Špi
▁alternate
▁1937
▁Kreml
Mal
▁Sail
Ø
-1701-
▁Konstant
▁oppression
▁buried
▁rechtswidrig
Archiv
▁deepening
▁survived
▁Herbert
▁cultivated
7.00
XP
▁Bushaltestelle
▁anxious
▁PADI
impf
▁knee
▁Message
QUI
▁Novo
▁imbalance
ос
USE
▁Beweg
▁Spybot
▁Neutral
▁Lignano
▁confortable
▁emphasized
▁Spann
▁statistic
▁medal
▁climatic
Regime
386
▁Turning
coding
▁dogma
▁MAI
▁obsolete
▁streaming
▁worn
▁Böhm
▁Arsch
ocracy
bezeichn
▁Bünd
ã
ła
▁Lieferant
egnet
▁Equality
uka
▁anxiety
▁Klassiker
▁mejor
cession
▁fixing
▁Statue
ftp
woo
AMA
agh
tabell
▁penalise
▁Contest
kritische
İ
▁kurd
people
Maschine
▁scrap
▁weitläufig
haar
Express
▁reef
▁potent
▁Casio
▁mediation
ancia
week
ل
▁Compostela
▁choir
▁Schied
HAL
focus
▁Küh
SIS
▁fortune
▁Levi
▁wheat
▁animated
▁seemingly
warm
▁quotation
language
accession
▁Einzelfall
▁Sixth
▁Minsk
▁Crete
▁Tasche
▁AMD
П
▁pakistan
▁infinite
▁microphone
▁rustic
▁Kamp
peg
Edit
▁insect
ocratic
▁Krist
Textilien
Troika
▁Kitzbühel
▁protagonist
▁voyage
▁Flick
imiento
Schul
▁Zadar
Gar
▁Platte
▁gesto
▁counted
▁Sozialistische
▁Honda
▁Zustände
terminal
gegner
Roll
▁geschult
▁steal
Browser
▁sympathis
▁Paolo
щ
findet
klusiv
mania
▁assembled
(5)
▁Intelligence
▁neighbors
▁racist
▁Sultan
▁Tulip
except
Einstellung
Netz
tunnel
Portal
▁Rossi
ummel
EUR
▁vehement
▁beneath
▁Attack
▁imposant
▁energetic
▁evolve
▁predominantly
▁Elles
▁dip
▁counterfeit
▁Highway
▁Coelho
▁fresco
▁Münster
▁envelope
▁Michelin
Unterstützung
ordnet
▁Compare
¿
▁franchise
▁Android
▁Kennedy
▁waiver
▁Paz
▁municipalities
▁Weinbau
ündig
▁binnen
▁modifiziert
▁Luzern
▁comic
▁chaoti
▁Vertei
Sound
▁abgelaufen
ünften
ISS
▁Trock
▁bud
CET
▁Bohemia
▁Herausgeber
▁Recovery
▁declining
▁liberties
▁Instandhaltung
▁proving
▁Tageszeitung
physiolog
▁Study
▁Opel
▁duplication
steroid
▁BEST
▁ansprechende
Bahnhof
▁Treff
▁Legion
▁brass
▁stretches
▁oversee
mog
▁Brauch
▁Rudolf
▁repository
▁Avenida
▁Reaktor
eiht
▁Jordani
▁Strömung
▁1953
liefern
▁Intellektuelle
▁Kult
▁YOUR
▁Cad
farb
▁grausame
▁Setup
Drive
▁bunk
▁endure
▁Pearl
▁Arrival
▁fraction
▁Joan
▁Certain
▁hindurch
▁Neig
▁declined
▁Moroccan
▁mortality
▁Insurance
▁Hawaii
▁alleviate
schleif
▁Güte
▁Alpin
Studio
taatsan
▁subvention
▁WITH
▁irregular
▁useless
▁Kreativ
▁cosmopolitan
▁Success
atalysator
▁Entfern
präsentieren
Filial
▁viability
▁ensuite
▁Manda
▁packet
[...]
